{
  "version": "1.0",
  "truncation": null,
  "padding": null,
  "added_tokens": [
    {
      "id": 0,
      "content": "[UNK]",
      "single_word": false,
      "lstrip": false,
      "rstrip": false,
      "normalized": false,
      "special": true
    },
    {
      "id": 1,
      "content": "[EOS]",
      "single_word": false,
      "lstrip": false,
      "rstrip": false,
      "normalized": false,
      "special": true
    }
  ],
  "normalizer": null,
  "pre_tokenizer": {
    "type": "Sequence",
    "pretokenizers": [
      {
        "type": "Punctuation",
        "behavior": "Isolated"
      },
      {
        "type": "Whitespace"
      },
      {
        "type": "Digits",
        "individual_digits": true
      }
    ]
  },
  "post_processor": null,
  "decoder": null,
  "model": {
    "type": "BPE",
    "dropout": null,
    "unk_token": "[UNK]",
    "continuing_subword_prefix": null,
    "end_of_word_suffix": null,
    "fuse_unk": false,
    "byte_fallback": false,
    "ignore_merges": false,
    "vocab": {
      "[UNK]": 0,
      "[EOS]": 1,
      "!": 2,
      "\"": 3,
      "#": 4,
      "$": 5,
      "%": 6,
      "&": 7,
      "'": 8,
      "(": 9,
      ")": 10,
      "*": 11,
      "+": 12,
      ",": 13,
      "-": 14,
      ".": 15,
      "/": 16,
      "0": 17,
      "1": 18,
      "2": 19,
      "3": 20,
      "4": 21,
      "5": 22,
      "6": 23,
      "7": 24,
      "8": 25,
      "9": 26,
      ":": 27,
      ";": 28,
      "=": 29,
      "?": 30,
      "@": 31,
      "a": 32,
      "b": 33,
      "c": 34,
      "d": 35,
      "e": 36,
      "f": 37,
      "g": 38,
      "h": 39,
      "i": 40,
      "j": 41,
      "k": 42,
      "l": 43,
      "m": 44,
      "n": 45,
      "o": 46,
      "p": 47,
      "q": 48,
      "r": 49,
      "s": 50,
      "t": 51,
      "u": 52,
      "v": 53,
      "w": 54,
      "x": 55,
      "y": 56,
      "z": 57,
      "he": 58,
      "the": 59,
      "in": 60,
      "ed": 61,
      "an": 62,
      "re": 63,
      "to": 64,
      "ou": 65,
      "th": 66,
      "er": 67,
      "ar": 68,
      "ing": 69,
      "as": 70,
      "and": 71,
      "en": 72,
      "on": 73,
      "at": 74,
      "st": 75,
      "it": 76,
      "al": 77,
      "is": 78,
      "el": 79,
      "she": 80,
      "lo": 81,
      "le": 82,
      "gh": 83,
      "of": 84,
      "they": 85,
      "ad": 86,
      "es": 87,
      "or": 88,
      "her": 89,
      "ld": 90,
      "wi": 91,
      "ri": 92,
      "ght": 93,
      "ir": 94,
      "ac": 95,
      "me": 96,
      "id": 97,
      "ow": 98,
      "li": 99,
      "sh": 100,
      "was": 101,
      "be": 102,
      "with": 103,
      "ut": 104,
      "ay": 105,
      "ly": 106,
      "am": 107,
      "se": 108,
      "il": 109,
      "ro": 110,
      "but": 111,
      "im": 112,
      "nd": 113,
      "his": 114,
      "ge": 115,
      "ke": 116,
      "ne": 117,
      "ver": 118,
      "ic": 119,
      "that": 120,
      "ked": 121,
      "fel": 122,
      "sa": 123,
      "ve": 124,
      "ther": 125,
      "one": 126,
      "felt": 127,
      "ch": 128,
      "no": 129,
      "ound": 130,
      "all": 131,
      "fe": 132,
      "we": 133,
      "ould": 134,
      "for": 135,
      "bo": 136,
      "you": 137,
      "sto": 138,
      "ent": 139,
      "wh": 140,
      "co": 141,
      "had": 142,
      "sp": 143,
      "out": 144,
      "art": 145,
      "ag": 146,
      "ap": 147,
      "ind": 148,
      "led": 149,
      "ur": 150,
      "un": 151,
      "ure": 152,
      "sm": 153,
      "la": 154,
      "so": 155,
      "end": 156,
      "hed": 157,
      "their": 158,
      "ex": 159,
      "ant": 160,
      "mo": 161,
      "low": 162,
      "de": 163,
      "wor": 164,
      "pl": 165,
      "not": 166,
      "op": 167,
      "ust": 168,
      "jo": 169,
      "ra": 170,
      "ul": 171,
      "said": 172,
      "tre": 173,
      "fri": 174,
      "friend": 175,
      "him": 176,
      "heart": 177,
      "day": 178,
      "ter": 179,
      "ard": 180,
      "loo": 181,
      "ered": 182,
      "ep": 183,
      "ned": 184,
      "ca": 185,
      "fo": 186,
      "whe": 187,
      "ce": 188,
      "could": 189,
      "app": 190,
      "rou": 191,
      "lau": 192,
      "if": 193,
      "now": 194,
      "ach": 195,
      "cre": 196,
      "ide": 197,
      "ark": 198,
      "found": 199,
      "ight": 200,
      "ever": 201,
      "way": 202,
      "ared": 203,
      "tr": 204,
      "like": 205,
      "ong": 206,
      "rom": 207,
      "old": 208,
      "ia": 209,
      "man": 210,
      "ain": 211,
      "ig": 212,
      "king": 213,
      "do": 214,
      "toge": 215,
      "together": 216,
      "them": 217,
      "ab": 218,
      "what": 219,
      "up": 220,
      "od": 221,
      "this": 222,
      "dre": 223,
      "ers": 224,
      "gr": 225,
      "right": 226,
      "et": 227,
      "can": 228,
      "every": 229,
      "ought": 230,
      "tur": 231,
      "ved": 232,
      "feel": 233,
      "irl": 234,
      "girl": 235,
      "joy": 236,
      "each": 237,
      "dream": 238,
      "em": 239,
      "light": 240,
      "ful": 241,
      "ace": 242,
      "new": 243,
      "den": 244,
      "hel": 245,
      "thing": 246,
      "ack": 247,
      "ali": 248,
      "fil": 249,
      "bright": 250,
      "thought": 251,
      "ok": 252,
      "were": 253,
      "want": 254,
      "star": 255,
      "ped": 256,
      "just": 257,
      "about": 258,
      "would": 259,
      "mb": 260,
      "from": 261,
      "ti": 262,
      "some": 263,
      "pe": 264,
      "are": 265,
      "str": 266,
      "into": 267,
      "boy": 268,
      "wat": 269,
      "mia": 270,
      "side": 271,
      "own": 272,
      "ast": 273,
      "uel": 274,
      "back": 275,
      "yes": 276,
      "filled": 277,
      "leo": 278,
      "cit": 279,
      "ess": 280,
      "other": 281,
      "find": 282,
      "ck": 283,
      "ice": 284,
      "ll": 285,
      "looked": 286,
      "help": 287,
      "dan": 288,
      "smil": 289,
      "sed": 290,
      "ade": 291,
      "friends": 292,
      "by": 293,
      "when": 294,
      "lear": 295,
      "asure": 296,
      "su": 297,
      "treasure": 298,
      "go": 299,
      "air": 300,
      "night": 301,
      "av": 302,
      "sk": 303,
      "feeling": 304,
      "wis": 305,
      "eyes": 306,
      "small": 307,
      "ond": 308,
      "br": 309,
      "ted": 310,
      "flow": 311,
      "ry": 312,
      "amed": 313,
      "happ": 314,
      "saw": 315,
      "smiled": 316,
      "lor": 317,
      "ries": 318,
      "rough": 319,
      "qu": 320,
      "beg": 321,
      "through": 322,
      "sun": 323,
      "asked": 324,
      "mag": 325,
      "let": 326,
      "made": 327,
      "magic": 328,
      "alex": 329,
      "its": 330,
      "und": 331,
      "around": 332,
      "clo": 333,
      "under": 334,
      "lost": 335,
      "ile": 336,
      "world": 337,
      "play": 338,
      "gre": 339,
      "creat": 340,
      "hop": 341,
      "named": 342,
      "wo": 343,
      "che": 344,
      "wanted": 345,
      "zed": 346,
      "fore": 347,
      "time": 348,
      "ave": 349,
      "ho": 350,
      "ath": 351,
      "ange": 352,
      "know": 353,
      "te": 354,
      "stars": 355,
      "ip": 356,
      "began": 357,
      "sky": 358,
      "reali": 359,
      "kim": 360,
      "stories": 361,
      "our": 362,
      "big": 363,
      "ake": 364,
      "turned": 365,
      "arm": 366,
      "cl": 367,
      "who": 368,
      "ened": 369,
      "oft": 370,
      "inside": 371,
      "vent": 372,
      "ched": 373,
      "ds": 374,
      "sam": 375,
      "dark": 376,
      "my": 377,
      "ill": 378,
      "ion": 379,
      "came": 380,
      "samuel": 381,
      "dreams": 382,
      "ven": 383,
      "sel": 384,
      "ghter": 385,
      "dden": 386,
      "see": 387,
      "sudden": 388,
      "color": 389,
      "learned": 390,
      "will": 391,
      "where": 392,
      "bu": 393,
      "read": 394,
      "tle": 395,
      "suddenly": 396,
      "danc": 397,
      "stood": 398,
      "love": 399,
      "ga": 400,
      "ling": 401,
      "dec": 402,
      "advent": 403,
      "laughter": 404,
      "deep": 405,
      "ment": 406,
      "adventure": 407,
      "more": 408,
      "shared": 409,
      "wal": 410,
      "excit": 411,
      "ided": 412,
      "realized": 413,
      "rit": 414,
      "cho": 415,
      "again": 416,
      "than": 417,
      "ie": 418,
      "ous": 419,
      "ghed": 420,
      "laughed": 421,
      "land": 422,
      "whis": 423,
      "how": 424,
      "ship": 425,
      "spark": 426,
      "con": 427,
      "memb": 428,
      "whisp": 429,
      "ren": 430,
      "step": 431,
      "moment": 432,
      "ness": 433,
      "ss": 434,
      "then": 435,
      "warm": 436,
      "tru": 437,
      "decided": 438,
      "something": 439,
      "ts": 440,
      "adow": 441,
      "even": 442,
      "je": 443,
      "tal": 444,
      "shin": 445,
      "rememb": 446,
      "hid": 447,
      "af": 448,
      "soft": 449,
      "aut": 450,
      "lit": 451,
      "ting": 452,
      "bel": 453,
      "there": 454,
      "exp": 455,
      "shadow": 456,
      "knew": 457,
      "took": 458,
      "us": 459,
      "fun": 460,
      "tree": 461,
      "down": 462,
      "bre": 463,
      "ang": 464,
      "away": 465,
      "danced": 466,
      "ild": 467,
      "home": 468,
      "ople": 469,
      "self": 470,
      "beaut": 471,
      "flowers": 472,
      "ached": 473,
      "did": 474,
      "gi": 475,
      "hope": 476,
      "bra": 477,
      "ru": 478,
      "spo": 479,
      "people": 480,
      "gard": 481,
      "over": 482,
      "garden": 483,
      "walked": 484,
      "wond": 485,
      "mor": 486,
      "glow": 487,
      "ci": 488,
      "sur": 489,
      "wind": 490,
      "sad": 491,
      "everyone": 492,
      "ning": 493,
      "tow": 494,
      "come": 495,
      "show": 496,
      "hand": 497,
      "strange": 498,
      "ried": 499,
      "fin": 500,
      "aced": 501,
      "pr": 502,
      "sat": 503,
      "ate": 504,
      "rita": 505,
      "cu": 506,
      "fear": 507,
      "vo": 508,
      "ink": 509,
      "hidden": 510,
      "dd": 511,
      "shout": 512,
      "ways": 513,
      "mind": 514,
      "plan": 515,
      "have": 516,
      "ined": 517,
      "cover": 518,
      "ak": 519,
      "water": 520,
      "sc": 521,
      "om": 522,
      "lily": 523,
      "secre": 524,
      "ally": 525,
      "map": 526,
      "mar": 527,
      "wa": 528,
      "after": 529,
      "set": 530,
      "pain": 531,
      "happy": 532,
      "ick": 533,
      "place": 534,
      "shouted": 535,
      "full": 536,
      "fi": 537,
      "ies": 538,
      "aring": 539,
      "loved": 540,
      "brave": 541,
      "too": 542,
      "little": 543,
      "cr": 544,
      "colors": 545,
      "knowing": 546,
      "ish": 547,
      "com": 548,
      "strong": 549,
      "smile": 550,
      "curi": 551,
      "always": 552,
      "ist": 553,
      "bb": 554,
      "told": 555,
      "need": 556,
      "story": 557,
      "forest": 558,
      "life": 559,
      "kind": 560,
      "trees": 561,
      "others": 562,
      "um": 563,
      "make": 564,
      "voice": 565,
      "spe": 566,
      "po": 567,
      "clou": 568,
      "your": 569,
      "ell": 570,
      "gather": 571,
      "long": 572,
      "share": 573,
      "fly": 574,
      "gu": 575,
      "creature": 576,
      "bir": 577,
      "shadows": 578,
      "city": 579,
      "whispered": 580,
      "lu": 581,
      "vil": 582,
      "rep": 583,
      "list": 584,
      "watched": 585,
      "alone": 586,
      "reached": 587,
      "ise": 588,
      "sil": 589,
      "door": 590,
      "ran": 591,
      "ised": 592,
      "hard": 593,
      "tin": 594,
      "iful": 595,
      "beautiful": 596,
      "call": 597,
      "ear": 598,
      "sw": 599,
      "dis": 600,
      "villa": 601,
      "aking": 602,
      "child": 603,
      "held": 604,
      "opened": 605,
      "fol": 606,
      "aves": 607,
      "soon": 608,
      "fle": 609,
      "stone": 610,
      "while": 611,
      "laugh": 612,
      "alice": 613,
      "spir": 614,
      "ready": 615,
      "room": 616,
      "book": 617,
      "pow": 618,
      "ated": 619,
      "sho": 620,
      "ass": 621,
      "cave": 622,
      "friendship": 623,
      "maria": 624,
      "ence": 625,
      "must": 626,
      "heard": 627,
      "memor": 628,
      "village": 629,
      "remembered": 630,
      "work": 631,
      "len": 632,
      "any": 633,
      "pic": 634,
      "ily": 635,
      "follow": 636,
      "true": 637,
      "jose": 638,
      "fre": 639,
      "ste": 640,
      "sit": 641,
      "pt": 642,
      "ble": 643,
      "prom": 644,
      "off": 645,
      "excited": 646,
      "ching": 647,
      "rain": 648,
      "cli": 649,
      "face": 650,
      "tall": 651,
      "many": 652,
      "lead": 653,
      "iced": 654,
      "power": 655,
      "jean": 656,
      "ser": 657,
      "sharing": 658,
      "ering": 659,
      "sear": 660,
      "gold": 661,
      "path": 662,
      "stor": 663,
      "wish": 664,
      "look": 665,
      "covered": 666,
      "snow": 667,
      "lena": 668,
      "fish": 669,
      "giant": 670,
      "med": 671,
      "nex": 672,
      "never": 673,
      "part": 674,
      "curious": 675,
      "ement": 676,
      "ground": 677,
      "only": 678,
      "grew": 679,
      "pul": 680,
      "finally": 681,
      "bring": 682,
      "once": 683,
      "breath": 684,
      "surpr": 685,
      "both": 686,
      "cou": 687,
      "letter": 688,
      "played": 689,
      "ft": 690,
      "nodd": 691,
      "fam": 692,
      "stepped": 693,
      "wait": 694,
      "ation": 695,
      "nodded": 696,
      "roud": 697,
      "cheered": 698,
      "storm": 699,
      "became": 700,
      "fa": 701,
      "proud": 702,
      "igh": 703,
      "spoke": 704,
      "lied": 705,
      "excitement": 706,
      "start": 707,
      "words": 708,
      "dr": 709,
      "seem": 710,
      "tim": 711,
      "cial": 712,
      "belie": 713,
      "care": 714,
      "youn": 715,
      "special": 716,
      "val": 717,
      "young": 718,
      "best": 719,
      "qui": 720,
      "days": 721,
      "noticed": 722,
      "explo": 723,
      "town": 724,
      "gathered": 725,
      "manuel": 726,
      "emmanuel": 727,
      "replied": 728,
      "climb": 729,
      "quiet": 730,
      "turn": 731,
      "rock": 732,
      "grow": 733,
      "woman": 734,
      "tain": 735,
      "great": 736,
      "clouds": 737,
      "explore": 738,
      "beh": 739,
      "sound": 740,
      "behind": 741,
      "warmth": 742,
      "ct": 743,
      "flew": 744,
      "vel": 745,
      "ug": 746,
      "bro": 747,
      "heav": 748,
      "past": 749,
      "softly": 750,
      "returned": 751,
      "closer": 752,
      "next": 753,
      "may": 754,
      "called": 755,
      "bird": 756,
      "ny": 757,
      "ol": 758,
      "used": 759,
      "fir": 760,
      "still": 761,
      "les": 762,
      "aces": 763,
      "river": 764,
      "bet": 765,
      "gent": 766,
      "rote": 767,
      "fl": 768,
      "rabb": 769,
      "bot": 770,
      "being": 771,
      "keep": 772,
      "here": 773,
      "abo": 774,
      "car": 775,
      "ket": 776,
      "take": 777,
      "sparkled": 778,
      "echo": 779,
      "times": 780,
      "seemed": 781,
      "flower": 782,
      "tion": 783,
      "hearts": 784,
      "appe": 785,
      "pu": 786,
      "before": 787,
      "shed": 788,
      "oud": 789,
      "tiny": 790,
      "ite": 791,
      "near": 792,
      "imag": 793,
      "change": 794,
      "stead": 795,
      "iness": 796,
      "appeared": 797,
      "rage": 798,
      "looking": 799,
      "sing": 800,
      "pre": 801,
      "above": 802,
      "drag": 803,
      "ving": 804,
      "stand": 805,
      "jour": 806,
      "flo": 807,
      "cat": 808,
      "dragon": 809,
      "vis": 810,
      "memories": 811,
      "listened": 812,
      "als": 813,
      "stu": 814,
      "family": 815,
      "heavy": 816,
      "fell": 817,
      "zing": 818,
      "courage": 819,
      "oun": 820,
      "ster": 821,
      "slow": 822,
      "why": 823,
      "jum": 824,
      "first": 825,
      "real": 826,
      "ney": 827,
      "raced": 828,
      "journey": 829,
      "got": 830,
      "worked": 831,
      "tri": 832,
      "swe": 833,
      "dif": 834,
      "fli": 835,
      "pped": 836,
      "feren": 837,
      "box": 838,
      "also": 839,
      "differen": 840,
      "mother": 841,
      "wise": 842,
      "cast": 843,
      "hold": 844,
      "promised": 845,
      "secrets": 846,
      "outside": 847,
      "magical": 848,
      "ance": 849,
      "good": 850,
      "alive": 851,
      "ves": 852,
      "met": 853,
      "instead": 854,
      "remind": 855,
      "rought": 856,
      "try": 857,
      "loud": 858,
      "trust": 859,
      "hero": 860,
      "key": 861,
      "things": 862,
      "himself": 863,
      "brought": 864,
      "happiness": 865,
      "dance": 866,
      "head": 867,
      "assed": 868,
      "anne": 869,
      "ash": 870,
      "inking": 871,
      "mis": 872,
      "secret": 873,
      "glowing": 874,
      "ged": 875,
      "kindness": 876,
      "sea": 877,
      "herself": 878,
      "ings": 879,
      "que": 880,
      "cle": 881,
      "din": 882,
      "shiny": 883,
      "peter": 884,
      "laughing": 885,
      "stre": 886,
      "high": 887,
      "yet": 888,
      "passed": 889,
      "tell": 890,
      "colorful": 891,
      "free": 892,
      "slowly": 893,
      "maybe": 894,
      "ner": 895,
      "swi": 896,
      "wonder": 897,
      "ze": 898,
      "left": 899,
      "showed": 900,
      "wondered": 901,
      "last": 902,
      "ose": 903,
      "open": 904,
      "started": 905,
      "thinking": 906,
      "ouse": 907,
      "shining": 908,
      "moon": 909,
      "hands": 910,
      "get": 911,
      "spot": 912,
      "scared": 913,
      "ine": 914,
      "alien": 915,
      "join": 916,
      "adventures": 917,
      "understood": 918,
      "wall": 919,
      "game": 920,
      "sweet": 921,
      "wood": 922,
      "robot": 923,
      "aving": 924,
      "apped": 925,
      "team": 926,
      "wide": 927,
      "win": 928,
      "tra": 929,
      "dom": 930,
      "grou": 931,
      "group": 932,
      "truth": 933,
      "picked": 934,
      "raw": 935,
      "different": 936,
      "wel": 937,
      "quick": 938,
      "owl": 939,
      "ountain": 940,
      "climbed": 941,
      "fad": 942,
      "cla": 943,
      "saur": 944,
      "lived": 945,
      "cel": 946,
      "making": 947,
      "ben": 948,
      "island": 949,
      "think": 950,
      "wrote": 951,
      "row": 952,
      "fig": 953,
      "park": 954,
      "ama": 955,
      "spirit": 956,
      "grand": 957,
      "less": 958,
      "plant": 959,
      "bl": 960,
      "figure": 961,
      "acing": 962,
      "conne": 963,
      "ebr": 964,
      "tw": 965,
      "tou": 966,
      "dino": 967,
      "sometimes": 968,
      "weight": 969,
      "claim": 970,
      "hill": 971,
      "por": 972,
      "build": 973,
      "followed": 974,
      "ity": 975,
      "chang": 976,
      "twi": 977,
      "ely": 978,
      "waves": 979,
      "fair": 980,
      "far": 981,
      "tales": 982,
      "song": 983,
      "celebr": 984,
      "discovered": 985,
      "stren": 986,
      "streng": 987,
      "run": 988,
      "dinosaur": 989,
      "remember": 990,
      "leaves": 991,
      "per": 992,
      "strength": 993,
      "went": 994,
      "kid": 995,
      "children": 996,
      "ks": 997,
      "everything": 998,
      "bloo": 999,
      "turtle": 1000,
      "creatures": 1001,
      "should": 1002,
      "cold": 1003,
      "jumped": 1004,
      "year": 1005,
      "ction": 1006,
      "wand": 1007,
      "cau": 1008,
      "draw": 1009,
      "imm": 1010,
      "better": 1011,
      "ross": 1012,
      "sy": 1013,
      "been": 1014,
      "beauty": 1015,
      "mus": 1016,
      "cry": 1017,
      "wr": 1018,
      "pir": 1019,
      "music": 1020,
      "cap": 1021,
      "waiting": 1022,
      "those": 1023,
      "anim": 1024,
      "shimm": 1025,
      "brighter": 1026,
      "dust": 1027,
      "mir": 1028,
      "mountain": 1029,
      "claimed": 1030,
      "sang": 1031,
      "kids": 1032,
      "wished": 1033,
      "pie": 1034,
      "twink": 1035,
      "moved": 1036,
      "fully": 1037,
      "fall": 1038,
      "very": 1039,
      "atter": 1040,
      "di": 1041,
      "among": 1042,
      "closed": 1043,
      "agre": 1044,
      "ward": 1045,
      "food": 1046,
      "conf": 1047,
      "create": 1048,
      "often": 1049,
      "act": 1050,
      "toy": 1051,
      "ten": 1052,
      "father": 1053,
      "castle": 1054,
      "stay": 1055,
      "say": 1056,
      "ished": 1057,
      "mu": 1058,
      "fox": 1059,
      "travel": 1060,
      "surprise": 1061,
      "flying": 1062,
      "ssed": 1063,
      "arri": 1064,
      "chest": 1065,
      "igg": 1066,
      "echoed": 1067,
      "deeper": 1068,
      "sadness": 1069,
      "lights": 1070,
      "without": 1071,
      "appro": 1072,
      "needed": 1073,
      "sted": 1074,
      "animals": 1075,
      "changed": 1076,
      "understand": 1077,
      "ball": 1078,
      "mbled": 1079,
      "helped": 1080,
      "pro": 1081,
      "space": 1082,
      "shone": 1083,
      "rabbit": 1084,
      "ilt": 1085,
      "fire": 1086,
      "lay": 1087,
      "cked": 1088,
      "dreamed": 1089,
      "gas": 1090,
      "explor": 1091,
      "exclaimed": 1092,
      "ons": 1093,
      "bond": 1094,
      "top": 1095,
      "ins": 1096,
      "mm": 1097,
      "thank": 1098,
      "ix": 1099,
      "cted": 1100,
      "another": 1101,
      "agreed": 1102,
      "playing": 1103,
      "faded": 1104,
      "gl": 1105,
      "sen": 1106,
      "eag": 1107,
      "lon": 1108,
      "seen": 1109,
      "des": 1110,
      "blu": 1111,
      "today": 1112,
      "ger": 1113,
      "ls": 1114,
      "toward": 1115,
      "funny": 1116,
      "return": 1117,
      "ary": 1118,
      "across": 1119,
      "swam": 1120,
      "cean": 1121,
      "ocean": 1122,
      "sand": 1123,
      "close": 1124,
      "woods": 1125,
      "poin": 1126,
      "quickly": 1127,
      "ited": 1128,
      "red": 1129,
      "sig": 1130,
      "darkness": 1131,
      "watching": 1132,
      "landed": 1133,
      "shap": 1134,
      "ple": 1135,
      "house": 1136,
      "treasures": 1137,
      "forever": 1138,
      "glowed": 1139,
      "stronger": 1140,
      "fairy": 1141,
      "term": 1142,
      "bene": 1143,
      "beneath": 1144,
      "approached": 1145,
      "floated": 1146,
      "inv": 1147,
      "gasped": 1148,
      "blue": 1149,
      "flick": 1150,
      "tight": 1151,
      "searched": 1152,
      "boat": 1153,
      "safe": 1154,
      "ames": 1155,
      "dist": 1156,
      "cor": 1157,
      "brightly": 1158,
      "someone": 1159,
      "walls": 1160,
      "silly": 1161,
      "spotted": 1162,
      "hes": 1163,
      "au": 1164,
      "racing": 1165,
      "hun": 1166,
      "gentle": 1167,
      "rol": 1168,
      "port": 1169,
      "helping": 1170,
      "writ": 1171,
      "empt": 1172,
      "tried": 1173,
      "luis": 1174,
      "nes": 1175,
      "mix": 1176,
      "ashed": 1177,
      "idea": 1178,
      "cryst": 1179,
      "within": 1180,
      "sparkling": 1181,
      "ible": 1182,
      "forward": 1183,
      "ans": 1184,
      "ough": 1185,
      "empty": 1186,
      "hoping": 1187,
      "eager": 1188,
      "determ": 1189,
      "built": 1190,
      "forgot": 1191,
      "stones": 1192,
      "ror": 1193,
      "fast": 1194,
      "scho": 1195,
      "gently": 1196,
      "answ": 1197,
      "illag": 1198,
      "villag": 1199,
      "crow": 1200,
      "trying": 1201,
      "hear": 1202,
      "shell": 1203,
      "faced": 1204,
      "gigg": 1205,
      "rush": 1206,
      "painted": 1207,
      "ping": 1208,
      "whispers": 1209,
      "gif": 1210,
      "ase": 1211,
      "kingdom": 1212,
      "imagined": 1213,
      "villagers": 1214,
      "mirror": 1215,
      "elled": 1216,
      "wandered": 1217,
      "upon": 1218,
      "joined": 1219,
      "listen": 1220,
      "arrived": 1221,
      "along": 1222,
      "dog": 1223,
      "ival": 1224,
      "lonely": 1225,
      "waved": 1226,
      "pulled": 1227,
      "thri": 1228,
      "searching": 1229,
      "ches": 1230,
      "reach": 1231,
      "street": 1232,
      "hur": 1233,
      "ating": 1234,
      "school": 1235,
      "cand": 1236,
      "pass": 1237,
      "leave": 1238,
      "shine": 1239,
      "against": 1240,
      "morning": 1241,
      "give": 1242,
      "leaving": 1243,
      "window": 1244,
      "pull": 1245,
      "fest": 1246,
      "reve": 1247,
      "cloud": 1248,
      "planet": 1249,
      "cket": 1250,
      "sity": 1251,
      "swir": 1252,
      "wee": 1253,
      "fiel": 1254,
      "hone": 1255,
      "osity": 1256,
      "butter": 1257,
      "reveal": 1258,
      "bree": 1259,
      "two": 1260,
      "might": 1261,
      "able": 1262,
      "festival": 1263,
      "trick": 1264,
      "fro": 1265,
      "leader": 1266,
      "cried": 1267,
      "sail": 1268,
      "below": 1269,
      "squ": 1270,
      "grass": 1271,
      "crowd": 1272,
      "race": 1273,
      "painting": 1274,
      "aw": 1275,
      "crew": 1276,
      "rushed": 1277,
      "wave": 1278,
      "ost": 1279,
      "evening": 1280,
      "games": 1281,
      "stopped": 1282,
      "belong": 1283,
      "realizing": 1284,
      "ridd": 1285,
      "inspir": 1286,
      "pushed": 1287,
      "round": 1288,
      "piece": 1289,
      "thick": 1290,
      "ars": 1291,
      "sn": 1292,
      "att": 1293,
      "ghost": 1294,
      "knight": 1295,
      "shook": 1296,
      "most": 1297,
      "fears": 1298,
      "believe": 1299,
      "nearby": 1300,
      "known": 1301,
      "ley": 1302,
      "wings": 1303,
      "mon": 1304,
      "breeze": 1305,
      "formed": 1306,
      "learn": 1307,
      "seed": 1308,
      "clear": 1309,
      "meet": 1310,
      "letters": 1311,
      "much": 1312,
      "created": 1313,
      "ater": 1314,
      "connection": 1315,
      "gone": 1316,
      "kept": 1317,
      "fight": 1318,
      "crystal": 1319,
      "brother": 1320,
      "dancing": 1321,
      "smiling": 1322,
      "believed": 1323,
      "allen": 1324,
      "challen": 1325,
      "import": 1326,
      "ination": 1327,
      "golden": 1328,
      "stumbled": 1329,
      "hour": 1330,
      "silence": 1331,
      "edge": 1332,
      "ture": 1333,
      "sunny": 1334,
      "surprised": 1335,
      "enjoy": 1336,
      "ener": 1337,
      "twinkled": 1338,
      "worried": 1339,
      "sense": 1340,
      "spread": 1341,
      "dreaming": 1342,
      "wishes": 1343,
      "note": 1344,
      "fr": 1345,
      "curiosity": 1346,
      "ices": 1347,
      "matter": 1348,
      "ring": 1349,
      "bran": 1350,
      "age": 1351,
      "ates": 1352,
      "sor": 1353,
      "holding": 1354,
      "ib": 1355,
      "tor": 1356,
      "aked": 1357,
      "gy": 1358,
      "don": 1359,
      "cal": 1360,
      "seek": 1361,
      "ines": 1362,
      "talked": 1363,
      "ious": 1364,
      "birds": 1365,
      "lies": 1366,
      "shore": 1367,
      "dusty": 1368,
      "carefully": 1369,
      "jester": 1370,
      "flash": 1371,
      "bow": 1372,
      "explorer": 1373,
      "ff": 1374,
      "honest": 1375,
      "ken": 1376,
      "bri": 1377,
      "faces": 1378,
      "sounds": 1379,
      "pirate": 1380,
      "these": 1381,
      "sug": 1382,
      "cool": 1383,
      "thanked": 1384,
      "coming": 1385,
      "moments": 1386,
      "sitting": 1387,
      "bal": 1388,
      "akes": 1389,
      "clu": 1390,
      "peace": 1391,
      "rolled": 1392,
      "bes": 1393,
      "sion": 1394,
      "guard": 1395,
      "cient": 1396,
      "prin": 1397,
      "wrong": 1398,
      "hug": 1399,
      "bur": 1400,
      "grabb": 1401,
      "pond": 1402,
      "sist": 1403,
      "ms": 1404,
      "thoughts": 1405,
      "fted": 1406,
      "smiles": 1407,
      "uck": 1408,
      "sup": 1409,
      "spl": 1410,
      "amazing": 1411,
      "ween": 1412,
      "contin": 1413,
      "continu": 1414,
      "anything": 1415,
      "surround": 1416,
      "spent": 1417,
      "tale": 1418,
      "beside": 1419,
      "caught": 1420,
      "grin": 1421,
      "fut": 1422,
      "earth": 1423,
      "inspired": 1424,
      "sym": 1425,
      "vi": 1426,
      "ideas": 1427,
      "later": 1428,
      "ather": 1429,
      "future": 1430,
      "sli": 1431,
      "sure": 1432,
      "grandmother": 1433,
      "candy": 1434,
      "has": 1435,
      "add": 1436,
      "quest": 1437,
      "sely": 1438,
      "memory": 1439,
      "finding": 1440,
      "closely": 1441,
      "vous": 1442,
      "places": 1443,
      "broken": 1444,
      "mist": 1445,
      "placed": 1446,
      "sence": 1447,
      "wild": 1448,
      "tel": 1449,
      "beach": 1450,
      "war": 1451,
      "important": 1452,
      "rainbow": 1453,
      "til": 1454,
      "rocks": 1455,
      "mean": 1456,
      "tears": 1457,
      "everywhere": 1458,
      "between": 1459,
      "grabbed": 1460,
      "symbo": 1461,
      "filling": 1462,
      "hu": 1463,
      "ions": 1464,
      "touched": 1465,
      "zz": 1466,
      "stop": 1467,
      "hours": 1468,
      "ago": 1469,
      "dou": 1470,
      "riddle": 1471,
      "sugge": 1472,
      "gift": 1473,
      "longer": 1474,
      "ancient": 1475,
      "bor": 1476,
      "nervous": 1477,
      "songs": 1478,
      "doub": 1479,
      "creating": 1480,
      "expla": 1481,
      "fail": 1482,
      "pri": 1483,
      "gave": 1484,
      "na": 1485,
      "dge": 1486,
      "paint": 1487,
      "clock": 1488,
      "quietly": 1489,
      "years": 1490,
      "didn": 1491,
      "iver": 1492,
      "discover": 1493,
      "invis": 1494,
      "word": 1495,
      "determined": 1496,
      "carry": 1497,
      "suggested": 1498,
      "understanding": 1499,
      "confused": 1500,
      "cour": 1501,
      "rel": 1502,
      "amazed": 1503,
      "ank": 1504,
      "green": 1505,
      "anted": 1506,
      "picture": 1507,
      "comes": 1508,
      "ended": 1509,
      "bear": 1510,
      "trans": 1511,
      "pet": 1512,
      "mach": 1513,
      "jewel": 1514,
      "pointed": 1515,
      "valley": 1516,
      "clever": 1517,
      "tightly": 1518,
      "kite": 1519,
      "feels": 1520,
      "taking": 1521,
      "ty": 1522,
      "dri": 1523,
      "ces": 1524,
      "hat": 1525,
      "use": 1526,
      "weeks": 1527,
      "ma": 1528,
      "lighter": 1529,
      "bru": 1530,
      "acked": 1531,
      "bloomed": 1532,
      "yelled": 1533,
      "surrounded": 1534,
      "party": 1535,
      "cook": 1536,
      "sister": 1537,
      "dear": 1538,
      "feather": 1539,
      "anger": 1540,
      "col": 1541,
      "raid": 1542,
      "corner": 1543,
      "woke": 1544,
      "running": 1545,
      "happen": 1546,
      "waited": 1547,
      "calm": 1548,
      "sol": 1549,
      "cause": 1550,
      "write": 1551,
      "name": 1552,
      "forgotten": 1553,
      "bloom": 1554,
      "toys": 1555,
      "lake": 1556,
      "kes": 1557,
      "squir": 1558,
      "entered": 1559,
      "afraid": 1560,
      "move": 1561,
      "explored": 1562,
      "ns": 1563,
      "loss": 1564,
      "continued": 1565,
      "invited": 1566,
      "soared": 1567,
      "shimmered": 1568,
      "enter": 1569,
      "watch": 1570,
      "blew": 1571,
      "chance": 1572,
      "danger": 1573,
      "bit": 1574,
      "ugg": 1575,
      "fort": 1576,
      "yard": 1577,
      "fade": 1578,
      "embr": 1579,
      "noise": 1580,
      "hig": 1581,
      "same": 1582,
      "finished": 1583,
      "thrill": 1584,
      "shimmering": 1585,
      "teamwork": 1586,
      "distance": 1587,
      "ahead": 1588,
      "bubb": 1589,
      "explained": 1590,
      "ired": 1591,
      "myster": 1592,
      "hurt": 1593,
      "field": 1594,
      "lives": 1595,
      "friendly": 1596,
      "really": 1597,
      "fix": 1598,
      "until": 1599,
      "aught": 1600,
      "tray": 1601,
      "energy": 1602,
      "bridge": 1603,
      "fru": 1604,
      "perfe": 1605,
      "because": 1606,
      "rust": 1607,
      "frog": 1608,
      "put": 1609,
      "mountains": 1610,
      "going": 1611,
      "missed": 1612,
      "prote": 1613,
      "reminder": 1614,
      "taught": 1615,
      "invisible": 1616,
      "ballo": 1617,
      "form": 1618,
      "revealing": 1619,
      "cir": 1620,
      "hesit": 1621,
      "thre": 1622,
      "trapped": 1623,
      "gli": 1624,
      "ateful": 1625,
      "irt": 1626,
      "planned": 1627,
      "stared": 1628,
      "butterfly": 1629,
      "forget": 1630,
      "queen": 1631,
      "vely": 1632,
      "avor": 1633,
      "favor": 1634,
      "onto": 1635,
      "streets": 1636,
      "pap": 1637,
      "refle": 1638,
      "catch": 1639,
      "wisdom": 1640,
      "showing": 1641,
      "kit": 1642,
      "betray": 1643,
      "choice": 1644,
      "gry": 1645,
      "talk": 1646,
      "seeds": 1647,
      "perfect": 1648,
      "wonders": 1649,
      "rop": 1650,
      "pirates": 1651,
      "chill": 1652,
      "visit": 1653,
      "lar": 1654,
      "squirrel": 1655,
      "favorite": 1656,
      "nothing": 1657,
      "tired": 1658,
      "fier": 1659,
      "bye": 1660,
      "goodbye": 1661,
      "ask": 1662,
      "sent": 1663,
      "well": 1664,
      "aun": 1665,
      "trad": 1666,
      "sighed": 1667,
      "iding": 1668,
      "ench": 1669,
      "chas": 1670,
      "wore": 1671,
      "pers": 1672,
      "aster": 1673,
      "attic": 1674,
      "est": 1675,
      "jewels": 1676,
      "giggled": 1677,
      "exploring": 1678,
      "reminded": 1679,
      "using": 1680,
      "grateful": 1681,
      "flies": 1682,
      "lesson": 1683,
      "ef": 1684,
      "blo": 1685,
      "promise": 1686,
      "plants": 1687,
      "pressed": 1688,
      "higher": 1689,
      "working": 1690,
      "arms": 1691,
      "broke": 1692,
      "table": 1693,
      "spaces": 1694,
      "telling": 1695,
      "sunlight": 1696,
      "ones": 1697,
      "ges": 1698,
      "enough": 1699,
      "transformed": 1700,
      "feet": 1701,
      "sim": 1702,
      "strugg": 1703,
      "touch": 1704,
      "libr": 1705,
      "busy": 1706,
      "rose": 1707,
      "inning": 1708,
      "mes": 1709,
      "bravery": 1710,
      "pa": 1711,
      "meant": 1712,
      "person": 1713,
      "enchanted": 1714,
      "okay": 1715,
      "del": 1716,
      "pur": 1717,
      "cannot": 1718,
      "oh": 1719,
      "prep": 1720,
      "glimm": 1721,
      "pract": 1722,
      "pected": 1723,
      "rocket": 1724,
      "silent": 1725,
      "doubt": 1726,
      "hugged": 1727,
      "save": 1728,
      "decl": 1729,
      "paper": 1730,
      "gest": 1731,
      "singing": 1732,
      "py": 1733,
      "freed": 1734,
      "aken": 1735,
      "answer": 1736,
      "nel": 1737,
      "declared": 1738,
      "mission": 1739,
      "push": 1740,
      "aliens": 1741,
      "haun": 1742,
      "flickered": 1743,
      "hip": 1744,
      "van": 1745,
      "ey": 1746,
      "cra": 1747,
      "rem": 1748,
      "guide": 1749,
      "stuck": 1750,
      "spaceship": 1751,
      "crown": 1752,
      "ail": 1753,
      "winter": 1754,
      "library": 1755,
      "ibil": 1756,
      "silver": 1757,
      "break": 1758,
      "escap": 1759,
      "line": 1760,
      "teac": 1761,
      "happened": 1762,
      "reminding": 1763,
      "burst": 1764,
      "captain": 1765,
      "tast": 1766,
      "branches": 1767,
      "echoing": 1768,
      "worlds": 1769,
      "ising": 1770,
      "lant": 1771,
      "cheer": 1772,
      "pret": 1773,
      "sailed": 1774,
      "gem": 1775,
      "ced": 1776,
      "pan": 1777,
      "hiding": 1778,
      "selves": 1779,
      "saying": 1780,
      "coins": 1781,
      "hesitated": 1782,
      "powerful": 1783,
      "resp": 1784,
      "drawn": 1785,
      "acks": 1786,
      "os": 1787,
      "acc": 1788,
      "ature": 1789,
      "tradit": 1790,
      "lanter": 1791,
      "celebrated": 1792,
      "sou": 1793,
      "smell": 1794,
      "hide": 1795,
      "fierce": 1796,
      "ont": 1797,
      "however": 1798,
      "twir": 1799,
      "ph": 1800,
      "cro": 1801,
      "aged": 1802,
      "seas": 1803,
      "neigh": 1804,
      "anyone": 1805,
      "neighbor": 1806,
      "cake": 1807,
      "growing": 1808,
      "ging": 1809,
      "tory": 1810,
      "bey": 1811,
      "search": 1812,
      "ire": 1813,
      "bag": 1814,
      "brush": 1815,
      "does": 1816,
      "shape": 1817,
      "shif": 1818,
      "hit": 1819,
      "fing": 1820,
      "pour": 1821,
      "rest": 1822,
      "talking": 1823,
      "though": 1824,
      "honesty": 1825,
      "test": 1826,
      "simple": 1827,
      "venge": 1828,
      "worry": 1829,
      "offered": 1830,
      "remain": 1831,
      "books": 1832,
      "fog": 1833,
      "dinosaurs": 1834,
      "eagerly": 1835,
      "distant": 1836,
      "shy": 1837,
      "moonlight": 1838,
      "noon": 1839,
      "happily": 1840,
      "carried": 1841,
      "taken": 1842,
      "revenge": 1843,
      "whisper": 1844,
      "turning": 1845,
      "ises": 1846,
      "blan": 1847,
      "challenge": 1848,
      "beyond": 1849,
      "atest": 1850,
      "heroes": 1851,
      "heal": 1852,
      "hills": 1853,
      "teacher": 1854,
      "moving": 1855,
      "fill": 1856,
      "fought": 1857,
      "hung": 1858,
      "crept": 1859,
      "ian": 1860,
      "building": 1861,
      "shapes": 1862,
      "wonderful": 1863,
      "rivers": 1864,
      "nature": 1865,
      "mouse": 1866,
      "traveled": 1867,
      "prince": 1868,
      "cess": 1869,
      "ot": 1870,
      "sorrow": 1871,
      "paused": 1872,
      "clean": 1873,
      "truly": 1874,
      "calling": 1875,
      "dug": 1876,
      "few": 1877,
      "leading": 1878,
      "afternoon": 1879,
      "imagination": 1880,
      "wash": 1881,
      "greatest": 1882,
      "feelings": 1883,
      "center": 1884,
      "remembering": 1885,
      "voices": 1886,
      "splash": 1887,
      "pound": 1888,
      "unsure": 1889,
      "hello": 1890,
      "univer": 1891,
      "cting": 1892,
      "buried": 1893,
      "lifted": 1894,
      "ending": 1895,
      "guiding": 1896,
      "become": 1897,
      "mel": 1898,
      "ages": 1899,
      "universe": 1900,
      "vanished": 1901,
      "walking": 1902,
      "twisted": 1903,
      "sign": 1904,
      "large": 1905,
      "winds": 1906,
      "slipped": 1907,
      "ject": 1908,
      "clapped": 1909,
      "plans": 1910,
      "hopes": 1911,
      "haunted": 1912,
      "cur": 1913,
      "twist": 1914,
      "won": 1915,
      "cookies": 1916,
      "vast": 1917,
      "monster": 1918,
      "der": 1919,
      "welcome": 1920,
      "wow": 1921,
      "scre": 1922,
      "stick": 1923,
      "roll": 1924,
      "flowed": 1925,
      "believing": 1926,
      "teach": 1927,
      "packed": 1928,
      "rise": 1929,
      "compass": 1930,
      "cont": 1931,
      "res": 1932,
      "traveler": 1933,
      "bringing": 1934,
      "ich": 1935,
      "protect": 1936,
      "ung": 1937,
      "pear": 1938,
      "which": 1939,
      "ents": 1940,
      "flu": 1941,
      "freedom": 1942,
      "glass": 1943,
      "saved": 1944,
      "leg": 1945,
      "shel": 1946,
      "paths": 1947,
      "balloon": 1948,
      "cher": 1949,
      "standing": 1950,
      "shes": 1951,
      "cha": 1952,
      "colle": 1953,
      "bat": 1954,
      "couldn": 1955,
      "comed": 1956,
      "elf": 1957,
      "summ": 1958,
      "amp": 1959,
      "bed": 1960,
      "escape": 1961,
      "giving": 1962,
      "hor": 1963,
      "ton": 1964,
      "absence": 1965,
      "lift": 1966,
      "accep": 1967,
      "dy": 1968,
      "robo": 1969,
      "pee": 1970,
      "speak": 1971,
      "daw": 1972,
      "mbling": 1973,
      "surface": 1974,
      "ledge": 1975,
      "symbol": 1976,
      "fluff": 1977,
      "welcomed": 1978,
      "swirled": 1979,
      "lock": 1980,
      "leap": 1981,
      "celebration": 1982,
      "snowman": 1983,
      "vibr": 1984,
      "tower": 1985,
      "sought": 1986,
      "bigger": 1987,
      "themselves": 1988,
      "trou": 1989,
      "eye": 1990,
      "puzz": 1991,
      "coun": 1992,
      "done": 1993,
      "crossed": 1994,
      "careful": 1995,
      "machine": 1996,
      "ibility": 1997,
      "fingers": 1998,
      "stream": 1999,
      "ier": 2000,
      "sway": 2001,
      "joyful": 2002,
      "knowledge": 2003,
      "spring": 2004,
      "cruel": 2005,
      "roared": 2006,
      "unity": 2007,
      "aps": 2008,
      "ots": 2009,
      "ipped": 2010,
      "dawn": 2011,
      "chaos": 2012,
      "wishing": 2013,
      "mid": 2014,
      "whispering": 2015,
      "almost": 2016,
      "bench": 2017,
      "vibrant": 2018,
      "brings": 2019,
      "robots": 2020,
      "creati": 2021,
      "fur": 2022,
      "emer": 2023,
      "smo": 2024,
      "beat": 2025,
      "front": 2026,
      "fla": 2027,
      "unex": 2028,
      "tail": 2029,
      "warned": 2030,
      "biggest": 2031,
      "unexpected": 2032,
      "gri": 2033,
      "stro": 2034,
      "celebrate": 2035,
      "belonged": 2036,
      "snacks": 2037,
      "cer": 2038,
      "doing": 2039,
      "par": 2040,
      "mer": 2041,
      "embrace": 2042,
      "gued": 2043,
      "added": 2044,
      "pup": 2045,
      "blanket": 2046,
      "pages": 2047,
      "vas": 2048,
      "proble": 2049,
      "canvas": 2050,
      "solve": 2051,
      "respons": 2052,
      "beginning": 2053,
      "ief": 2054,
      "determination": 2055,
      "smart": 2056,
      "eas": 2057,
      "steps": 2058,
      "worth": 2059,
      "grant": 2060,
      "zy": 2061,
      "class": 2062,
      "gathering": 2063,
      "bar": 2064,
      "pounding": 2065,
      "shop": 2066,
      "vity": 2067,
      "looks": 2068,
      "butterflies": 2069,
      "ign": 2070,
      "crashed": 2071,
      "staring": 2072,
      "flut": 2073,
      "trouble": 2074,
      "towards": 2075,
      "fresh": 2076,
      "spirits": 2077,
      "prepared": 2078,
      "fields": 2079,
      "howled": 2080,
      "feast": 2081,
      "iting": 2082,
      "tu": 2083,
      "sne": 2084,
      "walk": 2085,
      "mur": 2086,
      "pearl": 2087,
      "else": 2088,
      "ining": 2089,
      "super": 2090,
      "pictures": 2091,
      "panic": 2092,
      "sank": 2093,
      "makes": 2094,
      "scary": 2095,
      "loudly": 2096,
      "angry": 2097,
      "dim": 2098,
      "poured": 2099,
      "amond": 2100,
      "diamond": 2101,
      "ob": 2102,
      "fluffy": 2103,
      "bi": 2104,
      "challenges": 2105,
      "spun": 2106,
      "vines": 2107,
      "sle": 2108,
      "late": 2109,
      "betrayal": 2110,
      "ride": 2111,
      "bad": 2112,
      "sight": 2113,
      "faster": 2114,
      "mom": 2115,
      "ety": 2116,
      "creativity": 2117,
      "lantern": 2118,
      "fami": 2119,
      "poss": 2120,
      "orn": 2121,
      "having": 2122,
      "huge": 2123,
      "jump": 2124,
      "dirt": 2125,
      "remained": 2126,
      "awe": 2127,
      "soci": 2128,
      "mess": 2129,
      "stayed": 2130,
      "presence": 2131,
      "branch": 2132,
      "wrapped": 2133,
      "chuck": 2134,
      "tricks": 2135,
      "creaked": 2136,
      "oak": 2137,
      "loomed": 2138,
      "society": 2139,
      "ths": 2140,
      "summer": 2141,
      "gazed": 2142,
      "hall": 2143,
      "listening": 2144,
      "missing": 2145,
      "learning": 2146,
      "drawing": 2147,
      "zo": 2148,
      "hair": 2149,
      "pointing": 2150,
      "shells": 2151,
      "fruit": 2152,
      "vie": 2153,
      "uring": 2154,
      "battle": 2155,
      "swirling": 2156,
      "hol": 2157,
      "pride": 2158,
      "choices": 2159,
      "drew": 2160,
      "fai": 2161,
      "frow": 2162,
      "frowned": 2163,
      "tradition": 2164,
      "board": 2165,
      "clearing": 2166,
      "apping": 2167,
      "hoped": 2168,
      "encour": 2169,
      "crash": 2170,
      "lot": 2171,
      "orange": 2172,
      "shaking": 2173,
      "circle": 2174,
      "liked": 2175,
      "ruins": 2176,
      "floating": 2177,
      "chase": 2178,
      "spr": 2179,
      "planted": 2180,
      "tug": 2181,
      "backyard": 2182,
      "finish": 2183,
      "wit": 2184,
      "pat": 2185,
      "casting": 2186,
      "grinned": 2187,
      "floor": 2188,
      "ded": 2189,
      "rot": 2190,
      "pulling": 2191,
      "snowy": 2192,
      "apart": 2193,
      "beast": 2194,
      "failure": 2195,
      "hopped": 2196,
      "reaching": 2197,
      "longed": 2198,
      "bas": 2199,
      "chose": 2200,
      "greed": 2201,
      "during": 2202,
      "reli": 2203,
      "pen": 2204,
      "press": 2205,
      "swim": 2206,
      "bushes": 2207,
      "week": 2208,
      "admir": 2209,
      "spell": 2210,
      "peeked": 2211,
      "connected": 2212,
      "stret": 2213,
      "iron": 2214,
      "asking": 2215,
      "bottle": 2216,
      "steal": 2217,
      "clues": 2218,
      "fading": 2219,
      "emerged": 2220,
      "hole": 2221,
      "answers": 2222,
      "control": 2223,
      "dol": 2224,
      "dolph": 2225,
      "choose": 2226,
      "int": 2227,
      "twirled": 2228,
      "diamonds": 2229,
      "son": 2230,
      "chased": 2231,
      "kno": 2232,
      "visited": 2233,
      "chir": 2234,
      "puppy": 2235,
      "bike": 2236,
      "symbols": 2237,
      "following": 2238,
      "lose": 2239,
      "thief": 2240,
      "hood": 2241,
      "whole": 2242,
      "mysterious": 2243,
      "eat": 2244,
      "enjoyed": 2245,
      "roots": 2246,
      "shown": 2247,
      "attered": 2248,
      "view": 2249,
      "inviting": 2250,
      "winning": 2251,
      "excitedly": 2252,
      "weak": 2253,
      "ale": 2254,
      "unch": 2255,
      "splashed": 2256,
      "button": 2257,
      "imagining": 2258,
      "artist": 2259,
      "creep": 2260,
      "ual": 2261,
      "given": 2262,
      "flicker": 2263,
      "seeing": 2264,
      "foot": 2265,
      "chuckled": 2266,
      "lessons": 2267,
      "intri": 2268,
      "reflection": 2269,
      "inked": 2270,
      "drawings": 2271,
      "meeting": 2272,
      "zoom": 2273,
      "louder": 2274,
      "stroke": 2275,
      "practiced": 2276,
      "disapp": 2277,
      "pose": 2278,
      "weed": 2279,
      "unknown": 2280,
      "log": 2281,
      "pile": 2282,
      "mark": 2283,
      "icked": 2284,
      "drop": 2285,
      "cozy": 2286,
      "hon": 2287,
      "drifted": 2288,
      "oc": 2289,
      "ats": 2290,
      "difference": 2291,
      "market": 2292,
      "dig": 2293,
      "trembling": 2294,
      "hunt": 2295,
      "final": 2296,
      "tun": 2297,
      "lean": 2298,
      "ears": 2299,
      "buz": 2300,
      "purpose": 2301,
      "white": 2302,
      "rang": 2303,
      "gg": 2304,
      "pink": 2305,
      "zard": 2306,
      "hum": 2307,
      "three": 2308,
      "fruits": 2309,
      "rival": 2310,
      "prove": 2311,
      "kitche": 2312,
      "flutter": 2313,
      "mixed": 2314,
      "desp": 2315,
      "intrigued": 2316,
      "kitchen": 2317,
      "comp": 2318,
      "cused": 2319,
      "itself": 2320,
      "iz": 2321,
      "kets": 2322,
      "fairies": 2323,
      "neck": 2324,
      "sib": 2325,
      "sibling": 2326,
      "indep": 2327,
      "independ": 2328,
      "tools": 2329,
      "ue": 2330,
      "honor": 2331,
      "comm": 2332,
      "cru": 2333,
      "yourself": 2334,
      "sage": 2335,
      "ber": 2336,
      "hal": 2337,
      "storms": 2338,
      "crab": 2339,
      "focused": 2340,
      "enjoying": 2341,
      "ured": 2342,
      "wanting": 2343,
      "arp": 2344,
      "turns": 2345,
      "pop": 2346,
      "sunset": 2347,
      "action": 2348,
      "newfound": 2349,
      "leaf": 2350,
      "coin": 2351,
      "falling": 2352,
      "thes": 2353,
      "cking": 2354,
      "nights": 2355,
      "dau": 2356,
      "daughter": 2357,
      "raised": 2358,
      "lovely": 2359,
      "struck": 2360,
      "meadow": 2361,
      "train": 2362,
      "clothes": 2363,
      "haps": 2364,
      "perhaps": 2365,
      "dad": 2366,
      "confid": 2367,
      "pping": 2368,
      "sleep": 2369,
      "sword": 2370,
      "twinkle": 2371,
      "knel": 2372,
      "knelt": 2373,
      "washed": 2374,
      "please": 2375,
      "carrying": 2376,
      "course": 2377,
      "longing": 2378,
      "nic": 2379,
      "swing": 2380,
      "pho": 2381,
      "superhero": 2382,
      "blinked": 2383,
      "topus": 2384,
      "octopus": 2385,
      "sque": 2386,
      "says": 2387,
      "scr": 2388,
      "swimm": 2389,
      "vic": 2390,
      "gifts": 2391,
      "unic": 2392,
      "stud": 2393,
      "princess": 2394,
      "playful": 2395,
      "page": 2396,
      "maid": 2397,
      "admired": 2398,
      "delight": 2399,
      "responsibility": 2400,
      "happening": 2401,
      "dro": 2402,
      "emp": 2403,
      "amid": 2404,
      "sharp": 2405,
      "planets": 2406,
      "pieces": 2407,
      "live": 2408,
      "floo": 2409,
      "surprises": 2410,
      "inst": 2411,
      "tunnel": 2412,
      "shake": 2413,
      "problem": 2414,
      "vice": 2415,
      "mystery": 2416,
      "worries": 2417,
      "gray": 2418,
      "morrow": 2419,
      "tomorrow": 2420,
      "warning": 2421,
      "glan": 2422,
      "skill": 2423,
      "wol": 2424,
      "fting": 2425,
      "encouraged": 2426,
      "losing": 2427,
      "skies": 2428,
      "aloud": 2429,
      "rance": 2430,
      "roar": 2431,
      "min": 2432,
      "picnic": 2433,
      "skin": 2434,
      "independence": 2435,
      "stage": 2436,
      "gems": 2437,
      "lands": 2438,
      "net": 2439,
      "anymore": 2440,
      "mermaid": 2441,
      "swayed": 2442,
      "boun": 2443,
      "bread": 2444,
      "harder": 2445,
      "dep": 2446,
      "char": 2447,
      "holds": 2448,
      "sso": 2449,
      "rainy": 2450,
      "blosso": 2451,
      "widen": 2452,
      "keeper": 2453,
      "handed": 2454,
      "lingered": 2455,
      "witch": 2456,
      "belonging": 2457,
      "chirped": 2458,
      "hy": 2459,
      "seeking": 2460,
      "dle": 2461,
      "digg": 2462,
      "guardian": 2463,
      "tonight": 2464,
      "bush": 2465,
      "digging": 2466,
      "pushing": 2467,
      "middle": 2468,
      "glimmered": 2469,
      "smelled": 2470,
      "notes": 2471,
      "chasing": 2472,
      "facing": 2473,
      "leaned": 2474,
      "marked": 2475,
      "grown": 2476,
      "men": 2477,
      "oth": 2478,
      "basket": 2479,
      "nice": 2480,
      "revealed": 2481,
      "wolf": 2482,
      "sl": 2483,
      "ening": 2484,
      "suc": 2485,
      "living": 2486,
      "ps": 2487,
      "trap": 2488,
      "fighting": 2489,
      "cut": 2490,
      "petals": 2491,
      "worn": 2492,
      "hungry": 2493,
      "adm": 2494,
      "brea": 2495,
      "hopeful": 2496,
      "taste": 2497,
      "letting": 2498,
      "uncover": 2499,
      "fallen": 2500,
      "twinkling": 2501,
      "ann": 2502,
      "swimming": 2503,
      "rusty": 2504,
      "chocol": 2505,
      "horiz": 2506,
      "virt": 2507,
      "pocket": 2508,
      "virtual": 2509,
      "feared": 2510,
      "swirl": 2511,
      "knows": 2512,
      "wizard": 2513,
      "fountain": 2514,
      "lighting": 2515,
      "widened": 2516,
      "project": 2517,
      "entrance": 2518,
      "cei": 2519,
      "reading": 2520,
      "gener": 2521,
      "lest": 2522,
      "rode": 2523,
      "horizon": 2524,
      "ides": 2525,
      "cross": 2526,
      "cing": 2527,
      "shiver": 2528,
      "asks": 2529,
      "message": 2530,
      "chocolate": 2531,
      "harm": 2532,
      "shaped": 2533,
      "ju": 2534,
      "coral": 2535,
      "luck": 2536,
      "stretched": 2537,
      "yel": 2538,
      "dolphin": 2539,
      "ilor": 2540,
      "sec": 2541,
      "failed": 2542,
      "sailor": 2543,
      "questions": 2544,
      "upted": 2545,
      "celebrating": 2546,
      "climbing": 2547,
      "apple": 2548,
      "crack": 2549,
      "coo": 2550,
      "flour": 2551,
      "alley": 2552,
      "goal": 2553,
      "jokes": 2554,
      "gra": 2555,
      "soul": 2556,
      "poet": 2557,
      "accept": 2558,
      "answered": 2559,
      "iday": 2560,
      "holiday": 2561,
      "ventured": 2562,
      "sorry": 2563,
      "cheers": 2564,
      "lines": 2565,
      "half": 2566,
      "locked": 2567,
      "riddles": 2568,
      "pi": 2569,
      "clue": 2570,
      "cheerful": 2571,
      "awaited": 2572,
      "riches": 2573,
      "cost": 2574,
      "comet": 2575,
      "orb": 2576,
      "ding": 2577,
      "dar": 2578,
      "har": 2579,
      "guided": 2580,
      "planning": 2581,
      "homes": 2582,
      "echoes": 2583,
      "deer": 2584,
      "replaced": 2585,
      "depths": 2586,
      "pati": 2587,
      "bubbling": 2588,
      "means": 2589,
      "zoomed": 2590,
      "kest": 2591,
      "forgetting": 2592,
      "cafe": 2593,
      "easy": 2594,
      "aker": 2595,
      "ady": 2596,
      "event": 2597,
      "instant": 2598,
      "base": 2599,
      "cared": 2600,
      "photo": 2601,
      "connect": 2602,
      "cup": 2603,
      "darkest": 2604,
      "shot": 2605,
      "bold": 2606,
      "spar": 2607,
      "road": 2608,
      "support": 2609,
      "bell": 2610,
      "thunder": 2611,
      "ations": 2612,
      "neckl": 2613,
      "aren": 2614,
      "wondering": 2615,
      "ses": 2616,
      "circ": 2617,
      "inted": 2618,
      "hurried": 2619,
      "melod": 2620,
      "aky": 2621,
      "regre": 2622,
      "charm": 2623,
      "jumping": 2624,
      "nest": 2625,
      "cliff": 2626,
      "pick": 2627,
      "screen": 2628,
      "present": 2629,
      "prize": 2630,
      "liar": 2631,
      "crystals": 2632,
      "flickering": 2633,
      "discovery": 2634,
      "victory": 2635,
      "snowball": 2636,
      "uni": 2637,
      "player": 2638,
      "mattered": 2639,
      "relief": 2640,
      "necklace": 2641,
      "contest": 2642,
      "erupted": 2643,
      "smooth": 2644,
      "roof": 2645,
      "fit": 2646,
      "sees": 2647,
      "yellow": 2648,
      "endless": 2649,
      "passing": 2650,
      "takes": 2651,
      "unicorn": 2652,
      "pot": 2653,
      "odd": 2654,
      "treats": 2655,
      "sket": 2656,
      "comfort": 2657,
      "rich": 2658,
      "object": 2659,
      "history": 2660,
      "second": 2661,
      "creeping": 2662,
      "lady": 2663,
      "caring": 2664,
      "job": 2665,
      "legend": 2666,
      "towns": 2667,
      "locket": 2668,
      "knights": 2669,
      "fold": 2670,
      "mine": 2671,
      "finds": 2672,
      "community": 2673,
      "cheering": 2674,
      "decor": 2675,
      "spine": 2676,
      "parrot": 2677,
      "thrived": 2678,
      "scent": 2679,
      "flashlight": 2680,
      "desire": 2681,
      "tension": 2682,
      "mural": 2683,
      "threw": 2684,
      "explorers": 2685,
      "mble": 2686,
      "becoming": 2687,
      "order": 2688,
      "ales": 2689,
      "soaring": 2690,
      "drink": 2691,
      "sparked": 2692,
      "atched": 2693,
      "ored": 2694,
      "egg": 2695,
      "bravely": 2696,
      "dashed": 2697,
      "minut": 2698,
      "stir": 2699,
      "balloons": 2700,
      "watered": 2701,
      "studi": 2702,
      "chair": 2703,
      "cream": 2704,
      "ased": 2705,
      "buzzed": 2706,
      "unk": 2707,
      "needs": 2708,
      "paren": 2709,
      "tossed": 2710,
      "fate": 2711,
      "deser": 2712,
      "deeply": 2713,
      "hey": 2714,
      "steep": 2715,
      "notebook": 2716,
      "torn": 2717,
      "porch": 2718,
      "shifted": 2719,
      "flashed": 2720,
      "getting": 2721,
      "buildings": 2722,
      "stepping": 2723,
      "disappo": 2724,
      "giggle": 2725,
      "une": 2726,
      "cherish": 2727,
      "fool": 2728,
      "question": 2729,
      "feathers": 2730,
      "folk": 2731,
      "metal": 2732,
      "keeping": 2733,
      "mistakes": 2734,
      "flakes": 2735,
      "flooded": 2736,
      "grandfather": 2737,
      "allow": 2738,
      "bark": 2739,
      "knocked": 2740,
      "tors": 2741,
      "wearing": 2742,
      "images": 2743,
      "ners": 2744,
      "hot": 2745,
      "unique": 2746,
      "surge": 2747,
      "oting": 2748,
      "ull": 2749,
      "recalled": 2750,
      "cy": 2751,
      "trail": 2752,
      "stranger": 2753,
      "growth": 2754,
      "lion": 2755,
      "soar": 2756,
      "urged": 2757,
      "possible": 2758,
      "setting": 2759,
      "miss": 2760,
      "pudd": 2761,
      "anywhere": 2762,
      "recei": 2763,
      "sticks": 2764,
      "disappeared": 2765,
      "giggling": 2766,
      "icy": 2767,
      "villain": 2768,
      "glo": 2769,
      "trip": 2770,
      "friendships": 2771,
      "parents": 2772,
      "such": 2773,
      "cks": 2774,
      "writing": 2775,
      "grace": 2776,
      "umn": 2777,
      "regret": 2778,
      "students": 2779,
      "soil": 2780,
      "thinks": 2781,
      "body": 2782,
      "trusted": 2783,
      "autumn": 2784,
      "tied": 2785,
      "eld": 2786,
      "float": 2787,
      "ort": 2788,
      "maps": 2789,
      "smoke": 2790,
      "scales": 2791,
      "doors": 2792,
      "shelf": 2793,
      "familiar": 2794,
      "proudly": 2795,
      "leaped": 2796,
      "shooting": 2797,
      "leads": 2798,
      "splashing": 2799,
      "lonel": 2800,
      "whatever": 2801,
      "apples": 2802,
      "townsfolk": 2803,
      "vow": 2804,
      "umb": 2805,
      "faraway": 2806,
      "forming": 2807,
      "rising": 2808,
      "pondered": 2809,
      "blooming": 2810,
      "gain": 2811,
      "players": 2812,
      "siblings": 2813,
      "square": 2814,
      "tick": 2815,
      "wooden": 2816,
      "ache": 2817,
      "despair": 2818,
      "valu": 2819,
      "glit": 2820,
      "yal": 2821,
      "clut": 2822,
      "pack": 2823,
      "oped": 2824,
      "planting": 2825,
      "united": 2826,
      "dipped": 2827,
      "throw": 2828,
      "loneliness": 2829,
      "practice": 2830,
      "families": 2831,
      "safety": 2832,
      "ape": 2833,
      "bite": 2834,
      "snowflakes": 2835,
      "steady": 2836,
      "arrow": 2837,
      "myself": 2838,
      "scare": 2839,
      "wants": 2840,
      "jung": 2841,
      "ress": 2842,
      "zation": 2843,
      "ustr": 2844,
      "firm": 2845,
      "mistake": 2846,
      "skills": 2847,
      "seasons": 2848,
      "shocked": 2849,
      "waving": 2850,
      "tiness": 2851,
      "landing": 2852,
      "emptiness": 2853,
      "swept": 2854,
      "frustr": 2855,
      "creation": 2856,
      "delic": 2857,
      "betrayed": 2858,
      "unlock": 2859,
      "rac": 2860,
      "guilt": 2861,
      "sci": 2862,
      "swift": 2863,
      "dove": 2864,
      "aled": 2865,
      "portal": 2866,
      "bble": 2867,
      "jungle": 2868,
      "iest": 2869,
      "souls": 2870,
      "desk": 2871,
      "spinning": 2872,
      "wag": 2873,
      "sigh": 2874,
      "ax": 2875,
      "pal": 2876,
      "cts": 2877,
      "childhood": 2878,
      "promising": 2879,
      "hats": 2880,
      "kitten": 2881,
      "rhy": 2882,
      "wisely": 2883,
      "underground": 2884,
      "doubts": 2885,
      "shift": 2886,
      "baker": 2887,
      "zes": 2888,
      "written": 2889,
      "defe": 2890,
      "beamed": 2891,
      "weeds": 2892,
      "amidst": 2893,
      "irony": 2894,
      "rip": 2895,
      "tough": 2896,
      "civi": 2897,
      "civili": 2898,
      "gal": 2899,
      "ically": 2900,
      "stat": 2901,
      "trembled": 2902,
      "scen": 2903,
      "coat": 2904,
      "mixing": 2905,
      "renew": 2906,
      "older": 2907,
      "ticked": 2908,
      "studied": 2909,
      "purple": 2910,
      "da": 2911,
      "circles": 2912,
      "wheel": 2913,
      "ghosts": 2914,
      "shoes": 2915,
      "club": 2916,
      "already": 2917,
      "minutes": 2918,
      "ants": 2919,
      "machines": 2920,
      "glitter": 2921,
      "ris": 2922,
      "logic": 2923,
      "joke": 2924,
      "human": 2925,
      "chee": 2926,
      "picking": 2927,
      "scar": 2928,
      "ource": 2929,
      "urging": 2930,
      "vest": 2931,
      "bitter": 2932,
      "flapped": 2933,
      "traditions": 2934,
      "greet": 2935,
      "breaking": 2936,
      "ities": 2937,
      "dangerous": 2938,
      "received": 2939,
      "forms": 2940,
      "bee": 2941,
      "vision": 2942,
      "sparkle": 2943,
      "serious": 2944,
      "thanks": 2945,
      "struggled": 2946,
      "shelter": 2947,
      "uncovered": 2948,
      "rhyth": 2949,
      "ention": 2950,
      "playground": 2951,
      "wandering": 2952,
      "embraced": 2953,
      "signs": 2954,
      "crying": 2955,
      "shines": 2956,
      "hi": 2957,
      "ump": 2958,
      "spreading": 2959,
      "renewed": 2960,
      "si": 2961,
      "guarded": 2962,
      "cil": 2963,
      "neighbors": 2964,
      "exper": 2965,
      "lur": 2966,
      "pretty": 2967,
      "trunk": 2968,
      "invite": 2969,
      "reci": 2970,
      "beam": 2971,
      "bubbles": 2972,
      "lifting": 2973,
      "bake": 2974,
      "confident": 2975,
      "underwater": 2976,
      "wil": 2977,
      "dress": 2978,
      "joyfully": 2979,
      "rhythm": 2980,
      "item": 2981,
      "exchanged": 2982,
      "parts": 2983,
      "attention": 2984,
      "spire": 2985,
      "timid": 2986,
      "bank": 2987,
      "ually": 2988,
      "curiously": 2989,
      "melody": 2990,
      "minds": 2991,
      "opening": 2992,
      "reflecting": 2993,
      "mud": 2994,
      "announ": 2995,
      "puzzle": 2996,
      "dest": 2997,
      "valuable": 2998,
      "raged": 2999,
      "success": 3000,
      "rivalry": 3001,
      "puzzled": 3002,
      "guess": 3003,
      "boxes": 3004,
      "coop": 3005,
      "works": 3006,
      "civilization": 3007,
      "balance": 3008,
      "changing": 3009,
      "usion": 3010,
      "craw": 3011,
      "reality": 3012,
      "dropped": 3013,
      "glimmer": 3014,
      "happier": 3015,
      "du": 3016,
      "resting": 3017,
      "lunch": 3018,
      "respe": 3019,
      "plot": 3020,
      "expected": 3021,
      "shined": 3022,
      "bubble": 3023,
      "mone": 3024,
      "powers": 3025,
      "money": 3026,
      "tron": 3027,
      "mp": 3028,
      "enem": 3029,
      "science": 3030,
      "check": 3031,
      "exciting": 3032,
      "galax": 3033,
      "rops": 3034,
      "teaching": 3035,
      "astron": 3036,
      "keys": 3037,
      "beating": 3038,
      "vowed": 3039,
      "inspire": 3040,
      "bust": 3041,
      "accepted": 3042,
      "narrow": 3043,
      "lying": 3044,
      "waters": 3045,
      "granted": 3046,
      "cracked": 3047,
      "ony": 3048,
      "breathe": 3049,
      "black": 3050,
      "roamed": 3051,
      "ude": 3052,
      "confr": 3053,
      "legs": 3054,
      "pang": 3055,
      "discovering": 3056,
      "gazing": 3057,
      "device": 3058,
      "birth": 3059,
      "notice": 3060,
      "astronaut": 3061,
      "paintings": 3062,
      "troll": 3063,
      "grows": 3064,
      "oned": 3065,
      "ances": 3066,
      "tered": 3067,
      "weaving": 3068,
      "statue": 3069,
      "distr": 3070,
      "ni": 3071,
      "aint": 3072,
      "wrapping": 3073,
      "froze": 3074,
      "tune": 3075,
      "mat": 3076,
      "bug": 3077,
      "sailing": 3078,
      "gardens": 3079,
      "lined": 3080,
      "overcome": 3081,
      "returning": 3082,
      "castles": 3083,
      "ddy": 3084,
      "short": 3085,
      "kites": 3086,
      "ming": 3087,
      "unched": 3088,
      "soc": 3089,
      "dressed": 3090,
      "soccer": 3091,
      "motion": 3092,
      "blossomed": 3093,
      "younger": 3094,
      "aside": 3095,
      "announced": 3096,
      "rules": 3097,
      "whale": 3098,
      "rug": 3099,
      "darker": 3100,
      "cookie": 3101,
      "speed": 3102,
      "dragons": 3103,
      "further": 3104,
      "pencil": 3105,
      "rushing": 3106,
      "gripped": 3107,
      "cloak": 3108,
      "foc": 3109,
      "grab": 3110,
      "wet": 3111,
      "caves": 3112,
      "tang": 3113,
      "collected": 3114,
      "audi": 3115,
      "bonds": 3116,
      "trusting": 3117,
      "expe": 3118,
      "moves": 3119,
      "stair": 3120,
      "bin": 3121,
      "giants": 3122,
      "dull": 3123,
      "illed": 3124,
      "lanterns": 3125,
      "member": 3126,
      "flight": 3127,
      "sparkles": 3128,
      "pretending": 3129,
      "fely": 3130,
      "safely": 3131,
      "struggle": 3132,
      "ili": 3133,
      "passion": 3134,
      "gust": 3135,
      "tom": 3136,
      "desc": 3137,
      "sadly": 3138,
      "chees": 3139,
      "experi": 3140,
      "pil": 3141,
      "gle": 3142,
      "admit": 3143,
      "eagle": 3144,
      "nose": 3145,
      "bustling": 3146,
      "mou": 3147,
      "tells": 3148,
      "wing": 3149,
      "racco": 3150,
      "dare": 3151,
      "stomach": 3152,
      "audience": 3153,
      "waterfall": 3154,
      "padd": 3155,
      "jar": 3156,
      "dive": 3157,
      "season": 3158,
      "flowing": 3159,
      "popped": 3160,
      "forth": 3161,
      "warri": 3162,
      "warrior": 3163,
      "bags": 3164,
      "famous": 3165,
      "exist": 3166,
      "berries": 3167,
      "fireflies": 3168,
      "talent": 3169,
      "sandwi": 3170,
      "screamed": 3171,
      "tasted": 3172,
      "scattered": 3173,
      "argu": 3174,
      "patience": 3175,
      "faint": 3176,
      "compet": 3177,
      "brightened": 3178,
      "stolen": 3179,
      "glade": 3180,
      "rabbits": 3181,
      "cheese": 3182,
      "gen": 3183,
      "meaning": 3184,
      "figures": 3185,
      "shoulders": 3186,
      "cabin": 3187,
      "birthday": 3188,
      "cred": 3189,
      "icking": 3190,
      "rocky": 3191,
      "struggling": 3192,
      "importance": 3193,
      "farm": 3194,
      "paw": 3195,
      "card": 3196,
      "acts": 3197,
      "cakes": 3198,
      "lie": 3199,
      "unfold": 3200,
      "rooms": 3201,
      "belief": 3202,
      "scene": 3203,
      "early": 3204,
      "ades": 3205,
      "surprising": 3206,
      "rustling": 3207,
      "fixed": 3208,
      "peak": 3209,
      "ters": 3210,
      "generosity": 3211,
      "sunshine": 3212,
      "grinning": 3213,
      "bottom": 3214,
      "slipping": 3215,
      "elly": 3216,
      "elder": 3217,
      "unlike": 3218,
      "effort": 3219,
      "winding": 3220,
      "delicious": 3221,
      "visions": 3222,
      "frag": 3223,
      "sorce": 3224,
      "wasn": 3225,
      "point": 3226,
      "baked": 3227,
      "fed": 3228,
      "rugged": 3229,
      "ordin": 3230,
      "impress": 3231,
      "owner": 3232,
      "confusion": 3233,
      "jelly": 3234,
      "ently": 3235,
      "tured": 3236,
      "rumor": 3237,
      "taller": 3238,
      "gate": 3239,
      "dire": 3240,
      "shows": 3241,
      "pool": 3242,
      "resili": 3243,
      "scratched": 3244,
      "walks": 3245,
      "kicked": 3246,
      "lamp": 3247,
      "ordinary": 3248,
      "respect": 3249,
      "dinner": 3250,
      "clas": 3251,
      "store": 3252,
      "asy": 3253,
      "lier": 3254,
      "zen": 3255,
      "sled": 3256,
      "problems": 3257,
      "price": 3258,
      "blocking": 3259,
      "duck": 3260,
      "struggles": 3261,
      "flames": 3262,
      "raccoon": 3263,
      "tripped": 3264,
      "silently": 3265,
      "slip": 3266,
      "urge": 3267,
      "bs": 3268,
      "tallest": 3269,
      "mouth": 3270,
      "threat": 3271,
      "swung": 3272,
      "sprout": 3273,
      "mask": 3274,
      "potion": 3275,
      "admitted": 3276,
      "backpack": 3277,
      "crawled": 3278,
      "stormy": 3279,
      "towers": 3280,
      "harmony": 3281,
      "lled": 3282,
      "glimmering": 3283,
      "shock": 3284,
      "whenever": 3285,
      "incred": 3286,
      "thor": 3287,
      "frogs": 3288,
      "torto": 3289,
      "ables": 3290,
      "hurry": 3291,
      "blink": 3292,
      "tortoise": 3293,
      "string": 3294,
      "tricky": 3295,
      "cious": 3296,
      "pulsed": 3297,
      "precious": 3298,
      "laughs": 3299,
      "brushed": 3300,
      "caut": 3301,
      "rex": 3302,
      "tangled": 3303,
      "solved": 3304,
      "meal": 3305,
      "kis": 3306,
      "resilience": 3307,
      "grandma": 3308,
      "icing": 3309,
      "classm": 3310,
      "chick": 3311,
      "shrugged": 3312,
      "frozen": 3313,
      "halls": 3314,
      "cope": 3315,
      "desert": 3316,
      "wear": 3317,
      "scarf": 3318,
      "snail": 3319,
      "peered": 3320,
      "aware": 3321,
      "sly": 3322,
      "skate": 3323,
      "ibilities": 3324,
      "dared": 3325,
      "doll": 3326,
      "actions": 3327,
      "beings": 3328,
      "rist": 3329,
      "whist": 3330,
      "thrilled": 3331,
      "ships": 3332,
      "blow": 3333,
      "reader": 3334,
      "invent": 3335,
      "glasses": 3336,
      "grum": 3337,
      "greeted": 3338,
      "nut": 3339,
      "footsteps": 3340,
      "blooms": 3341,
      "hang": 3342,
      "ruled": 3343,
      "rare": 3344,
      "gaze": 3345,
      "sprit": 3346,
      "hollow": 3347,
      "warmed": 3348,
      "complet": 3349,
      "dod": 3350,
      "sal": 3351,
      "fluttered": 3352,
      "tons": 3353,
      "rolling": 3354,
      "ironically": 3355,
      "rainbows": 3356,
      "ider": 3357,
      "frown": 3358,
      "eng": 3359,
      "spin": 3360,
      "teles": 3361,
      "chosen": 3362,
      "earlier": 3363,
      "tucked": 3364,
      "lively": 3365,
      "ckets": 3366,
      "seashel": 3367,
      "inspiration": 3368,
      "frustrated": 3369,
      "swelled": 3370,
      "barked": 3371,
      "buttons": 3372,
      "stirred": 3373,
      "bare": 3374,
      "ribb": 3375,
      "uneasy": 3376,
      "gro": 3377,
      "telescope": 3378,
      "oring": 3379,
      "acceptance": 3380,
      "grumpy": 3381,
      "lightning": 3382,
      "joked": 3383,
      "collect": 3384,
      "send": 3385,
      "reef": 3386,
      "squeaked": 3387,
      "ban": 3388,
      "sending": 3389,
      "task": 3390,
      "umin": 3391,
      "realm": 3392,
      "charac": 3393,
      "reflected": 3394,
      "speople": 3395,
      "townspeople": 3396,
      "burden": 3397,
      "itude": 3398,
      "shimmer": 3399,
      "buy": 3400,
      "ud": 3401,
      "stru": 3402,
      "match": 3403,
      "cleared": 3404,
      "stole": 3405,
      "unseen": 3406,
      "brightest": 3407,
      "hers": 3408,
      "blank": 3409,
      "dru": 3410,
      "possibilities": 3411,
      "lli": 3412,
      "thr": 3413,
      "windows": 3414,
      "decide": 3415,
      "chicken": 3416,
      "confidence": 3417,
      "disappointed": 3418,
      "forests": 3419,
      "express": 3420,
      "atitude": 3421,
      "terri": 3422,
      "gratitude": 3423,
      "fu": 3424,
      "adi": 3425,
      "monkey": 3426,
      "midnight": 3427,
      "neighborhood": 3428,
      "conqu": 3429,
      "ouses": 3430,
      "greater": 3431,
      "curse": 3432,
      "responsible": 3433,
      "harvest": 3434,
      "starry": 3435,
      "thread": 3436,
      "houses": 3437,
      "tape": 3438,
      "pizz": 3439,
      "size": 3440,
      "direction": 3441,
      "fright": 3442,
      "stealing": 3443,
      "cheeks": 3444,
      "ringing": 3445,
      "rank": 3446,
      "startled": 3447,
      "cleaning": 3448,
      "ition": 3449,
      "sprink": 3450,
      "bubbled": 3451,
      "spilled": 3452,
      "cooper": 3453,
      "cam": 3454,
      "pump": 3455,
      "paddled": 3456,
      "giggles": 3457,
      "supp": 3458,
      "kne": 3459,
      "peaceful": 3460,
      "rer": 3461,
      "boys": 3462,
      "opens": 3463,
      "seaweed": 3464,
      "sandcastle": 3465,
      "fireworks": 3466,
      "pretended": 3467,
      "smaller": 3468,
      "twirling": 3469,
      "beep": 3470,
      "sold": 3471,
      "misch": 3472,
      "continue": 3473,
      "shade": 3474,
      "cot": 3475,
      "pizza": 3476,
      "ripp": 3477,
      "enemy": 3478,
      "ical": 3479,
      "imagine": 3480,
      "guards": 3481,
      "ians": 3482,
      "eph": 3483,
      "fishing": 3484,
      "eleph": 3485,
      "dreamer": 3486,
      "perched": 3487,
      "mush": 3488,
      "pumpk": 3489,
      "melted": 3490,
      "galaxy": 3491,
      "riverbank": 3492,
      "shi": 3493,
      "source": 3494,
      "darkened": 3495,
      "unexpectedly": 3496,
      "gloo": 3497,
      "void": 3498,
      "rup": 3499,
      "royal": 3500,
      "pure": 3501,
      "legends": 3502,
      "tricked": 3503,
      "alous": 3504,
      "jealous": 3505,
      "pian": 3506,
      "goes": 3507,
      "wrap": 3508,
      "animal": 3509,
      "dry": 3510,
      "girls": 3511,
      "months": 3512,
      "none": 3513,
      "reply": 3514,
      "radi": 3515,
      "foolish": 3516,
      "tear": 3517,
      "focus": 3518,
      "helps": 3519,
      "blur": 3520,
      "pay": 3521,
      "gers": 3522,
      "supplies": 3523,
      "larger": 3524,
      "tea": 3525,
      "stands": 3526,
      "shadowy": 3527,
      "advice": 3528,
      "rustled": 3529,
      "wildly": 3530,
      "unaware": 3531,
      "boom": 3532,
      "corners": 3533,
      "ligh": 3534,
      "sink": 3535,
      "piano": 3536,
      "despite": 3537,
      "envel": 3538,
      "tiv": 3539,
      "carrot": 3540,
      "swo": 3541,
      "shouting": 3542,
      "sco": 3543,
      "sters": 3544,
      "shovel": 3545,
      "sprite": 3546,
      "glanced": 3547,
      "cleaned": 3548,
      "risk": 3549,
      "tag": 3550,
      "candle": 3551,
      "master": 3552,
      "dges": 3553,
      "ancestors": 3554,
      "treehouse": 3555,
      "ive": 3556,
      "ruin": 3557,
      "carved": 3558,
      "rustle": 3559,
      "bicy": 3560,
      "emotion": 3561,
      "wallow": 3562,
      "freely": 3563,
      "argued": 3564,
      "alth": 3565,
      "promises": 3566,
      "sty": 3567,
      "swallow": 3568,
      "lighth": 3569,
      "proving": 3570,
      "wealth": 3571,
      "classroom": 3572,
      "inter": 3573,
      "sneak": 3574,
      "saurus": 3575,
      "bun": 3576,
      "collecting": 3577,
      "flourished": 3578,
      "embracing": 3579,
      "sick": 3580,
      "guit": 3581,
      "value": 3582,
      "tled": 3583,
      "shades": 3584,
      "hummed": 3585,
      "confront": 3586,
      "somewhere": 3587,
      "rubb": 3588,
      "nor": 3589,
      "expect": 3590,
      "lighthouse": 3591,
      "streams": 3592,
      "zzy": 3593,
      "shattered": 3594,
      "study": 3595,
      "joining": 3596,
      "wed": 3597,
      "force": 3598,
      "inte": 3599,
      "painter": 3600,
      "single": 3601,
      "classmates": 3602,
      "dimmed": 3603,
      "guitar": 3604,
      "fis": 3605,
      "soup": 3606,
      "stairs": 3607,
      "eating": 3608,
      "whistle": 3609,
      "fine": 3610,
      "band": 3611,
      "bouncing": 3612,
      "oken": 3613,
      "chat": 3614,
      "lucky": 3615,
      "aging": 3616,
      "company": 3617,
      "illy": 3618,
      "wound": 3619,
      "cti": 3620,
      "weather": 3621,
      "fence": 3622,
      "cautious": 3623,
      "chain": 3624,
      "comb": 3625,
      "poem": 3626,
      "counted": 3627,
      "mighty": 3628,
      "rested": 3629,
      "acted": 3630,
      "fisher": 3631,
      "trash": 3632,
      "horse": 3633,
      "members": 3634,
      "aby": 3635,
      "swell": 3636,
      "swings": 3637,
      "inclu": 3638,
      "puzzles": 3639,
      "healing": 3640,
      "anx": 3641,
      "misty": 3642,
      "bicycle": 3643,
      "connecting": 3644,
      "messy": 3645,
      "disappear": 3646,
      "snowballs": 3647,
      "seems": 3648,
      "oneself": 3649,
      "bus": 3650,
      "snif": 3651,
      "dangers": 3652,
      "fragile": 3653,
      "chilly": 3654,
      "heads": 3655,
      "calmed": 3656,
      "elephant": 3657,
      "isn": 3658,
      "invisibility": 3659,
      "admire": 3660,
      "wherever": 3661,
      "allest": 3662,
      "smallest": 3663,
      "ummy": 3664,
      "gets": 3665,
      "headed": 3666,
      "pebble": 3667,
      "inno": 3668,
      "espe": 3669,
      "cially": 3670,
      "especially": 3671,
      "gar": 3672,
      "dart": 3673,
      "eventually": 3674,
      "cooperation": 3675,
      "lush": 3676,
      "begin": 3677,
      "incredible": 3678,
      "buzzing": 3679,
      "tool": 3680,
      "calmly": 3681,
      "clutching": 3682,
      "imed": 3683,
      "wre": 3684,
      "heartbeat": 3685,
      "acorn": 3686,
      "shaky": 3687,
      "sensed": 3688,
      "ashes": 3689,
      "moss": 3690,
      "outsmart": 3691,
      "timidly": 3692,
      "cars": 3693,
      "ident": 3694,
      "journeys": 3695,
      "movement": 3696,
      "ison": 3697,
      "glory": 3698,
      "flipped": 3699,
      "begins": 3700,
      "starts": 3701,
      "drift": 3702,
      "loves": 3703,
      "puddle": 3704,
      "fee": 3705,
      "oted": 3706,
      "nowhere": 3707,
      "turing": 3708,
      "nur": 3709,
      "wheels": 3710,
      "cof": 3711,
      "saving": 3712,
      "eved": 3713,
      "illumin": 3714,
      "spoon": 3715,
      "approach": 3716,
      "usu": 3717,
      "coffee": 3718,
      "spoken": 3719,
      "adding": 3720,
      "drops": 3721,
      "growled": 3722,
      "aboard": 3723,
      "cherished": 3724,
      "swiftly": 3725,
      "gno": 3726,
      "puddles": 3727,
      "gracefully": 3728,
      "shield": 3729,
      "nod": 3730,
      "slide": 3731,
      "posed": 3732,
      "evil": 3733,
      "pale": 3734,
      "prepare": 3735,
      "hest": 3736,
      "catching": 3737,
      "rupt": 3738,
      "asle": 3739,
      "asleep": 3740,
      "sandy": 3741,
      "yours": 3742,
      "pillow": 3743,
      "decis": 3744,
      "sche": 3745,
      "stron": 3746,
      "cham": 3747,
      "scents": 3748,
      "matters": 3749,
      "bul": 3750,
      "settled": 3751,
      "braver": 3752,
      "hardly": 3753,
      "pretend": 3754,
      "ric": 3755,
      "sensing": 3756,
      "reward": 3757,
      "ignoring": 3758,
      "desper": 3759,
      "phone": 3760,
      "bbled": 3761,
      "guardians": 3762,
      "cosm": 3763,
      "wagged": 3764,
      "baking": 3765,
      "tasty": 3766,
      "ssing": 3767,
      "candles": 3768,
      "eter": 3769,
      "strongest": 3770,
      "visible": 3771,
      "gras": 3772,
      "ceed": 3773,
      "track": 3774,
      "flute": 3775,
      "swooped": 3776,
      "stry": 3777,
      "transform": 3778,
      "anti": 3779,
      "case": 3780,
      "ghostly": 3781,
      "bees": 3782,
      "damp": 3783,
      "wake": 3784,
      "dolphins": 3785,
      "appear": 3786,
      "glided": 3787,
      "ware": 3788,
      "succeed": 3789,
      "palace": 3790,
      "glittering": 3791,
      "lun": 3792,
      "balls": 3793,
      "breathing": 3794,
      "lightly": 3795,
      "stri": 3796,
      "battles": 3797,
      "teased": 3798,
      "conquer": 3799,
      "whir": 3800,
      "troubles": 3801,
      "pair": 3802,
      "flame": 3803,
      "decides": 3804,
      "tapestry": 3805,
      "bounced": 3806,
      "plotted": 3807,
      "patch": 3808,
      "smells": 3809,
      "afar": 3810,
      "tivated": 3811,
      "aband": 3812,
      "rele": 3813,
      "items": 3814,
      "connections": 3815,
      "raind": 3816,
      "anxious": 3817,
      "defeated": 3818,
      "beginnings": 3819,
      "remembers": 3820,
      "nuts": 3821,
      "perfectly": 3822,
      "begun": 3823,
      "coach": 3824,
      "relieved": 3825,
      "grip": 3826,
      "thankful": 3827,
      "ray": 3828,
      "sits": 3829,
      "herring": 3830,
      "achie": 3831,
      "hanging": 3832,
      "score": 3833,
      "waking": 3834,
      "decorated": 3835,
      "gained": 3836,
      "baby": 3837,
      "pouring": 3838,
      "sugar": 3839,
      "ors": 3840,
      "shoulder": 3841,
      "oky": 3842,
      "sneaky": 3843,
      "brothers": 3844,
      "camp": 3845,
      "cape": 3846,
      "tech": 3847,
      "hardship": 3848,
      "fixing": 3849,
      "veget": 3850,
      "whirl": 3851,
      "touching": 3852,
      "socks": 3853,
      "station": 3854,
      "applau": 3855,
      "fuel": 3856,
      "rella": 3857,
      "spor": 3858,
      "lurking": 3859,
      "bound": 3860,
      "crashing": 3861,
      "crackled": 3862,
      "ender": 3863,
      "certain": 3864,
      "umbrella": 3865,
      "cries": 3866,
      "sting": 3867,
      "web": 3868,
      "plane": 3869,
      "blind": 3870,
      "hover": 3871,
      "concer": 3872,
      "rowed": 3873,
      "lab": 3874,
      "chamber": 3875,
      "split": 3876,
      "changes": 3877,
      "area": 3878,
      "sails": 3879,
      "carving": 3880,
      "upset": 3881,
      "bunny": 3882,
      "sisters": 3883,
      "abrupt": 3884,
      "abruptly": 3885,
      "noises": 3886,
      "starfish": 3887,
      "monsters": 3888,
      "rumble": 3889,
      "offering": 3890,
      "ticking": 3891,
      "petal": 3892,
      "pies": 3893,
      "awoke": 3894,
      "confess": 3895,
      "click": 3896,
      "court": 3897,
      "conscience": 3898,
      "starting": 3899,
      "math": 3900,
      "tee": 3901,
      "surged": 3902,
      "closing": 3903,
      "warmly": 3904,
      "praised": 3905,
      "acking": 3906,
      "appreci": 3907,
      "survi": 3908,
      "rope": 3909,
      "dead": 3910,
      "nervously": 3911,
      "colder": 3912,
      "hopping": 3913,
      "throne": 3914,
      "cooking": 3915,
      "glances": 3916,
      "abandoned": 3917,
      "kick": 3918,
      "oid": 3919,
      "ery": 3920,
      "cursed": 3921,
      "hic": 3922,
      "complete": 3923,
      "markings": 3924,
      "trained": 3925,
      "teeth": 3926,
      "brightening": 3927,
      "heavier": 3928,
      "shouts": 3929,
      "encouraging": 3930,
      "ences": 3931,
      "usual": 3932,
      "garage": 3933,
      "realizes": 3934,
      "photos": 3935,
      "tip": 3936,
      "charming": 3937,
      "tide": 3938,
      "tilted": 3939,
      "skateboard": 3940,
      "vegetables": 3941,
      "eer": 3942,
      "knot": 3943,
      "twig": 3944,
      "crops": 3945,
      "sin": 3946,
      "scored": 3947,
      "cloaked": 3948,
      "knock": 3949,
      "teamm": 3950,
      "skipped": 3951,
      "inge": 3952,
      "elet": 3953,
      "ctor": 3954,
      "easily": 3955,
      "competition": 3956,
      "eggs": 3957,
      "highest": 3958,
      "blocked": 3959,
      "covering": 3960,
      "defeat": 3961,
      "bent": 3962,
      "rul": 3963,
      "dancer": 3964,
      "aches": 3965,
      "scream": 3966,
      "barr": 3967,
      "embarr": 3968,
      "drove": 3969,
      "rots": 3970,
      "twinge": 3971,
      "thin": 3972,
      "genie": 3973,
      "nal": 3974,
      "partner": 3975,
      "shelves": 3976,
      "smir": 3977,
      "paintbrush": 3978,
      "ingred": 3979,
      "ingredi": 3980,
      "crossing": 3981,
      "names": 3982,
      "applause": 3983,
      "cities": 3984,
      "meanwhile": 3985,
      "suit": 3986,
      "brac": 3987,
      "boats": 3988,
      "recipe": 3989,
      "treat": 3990,
      "disappoint": 3991,
      "hooted": 3992,
      "wreck": 3993,
      "bracelet": 3994,
      "accident": 3995,
      "neath": 3996,
      "underneath": 3997,
      "pressing": 3998,
      "pumpkin": 3999,
      "stall": 4000,
      "sorcerer": 4001,
      "ends": 4002,
      "vol": 4003,
      "tunnels": 4004,
      "scan": 4005,
      "keepers": 4006,
      "marble": 4007,
      "sip": 4008,
      "reas": 4009,
      "sleeping": 4010,
      "clar": 4011,
      "patter": 4012,
      "runs": 4013,
      "spells": 4014,
      "doesn": 4015,
      "fake": 4016,
      "sights": 4017,
      "dais": 4018,
      "fac": 4019,
      "fer": 4020,
      "stillness": 4021,
      "backward": 4022,
      "realize": 4023,
      "respond": 4024,
      "rule": 4025,
      "shoe": 4026,
      "rels": 4027,
      "ord": 4028,
      "sounded": 4029,
      "buddy": 4030,
      "farmer": 4031,
      "news": 4032,
      "roses": 4033,
      "dares": 4034,
      "neat": 4035,
      "sandwiches": 4036,
      "clutched": 4037,
      "disappointment": 4038,
      "decision": 4039,
      "pulse": 4040,
      "fills": 4041,
      "spots": 4042,
      "flav": 4043,
      "anded": 4044,
      "burned": 4045,
      "honey": 4046,
      "tem": 4047,
      "count": 4048,
      "scient": 4049,
      "uncertain": 4050,
      "ddled": 4051,
      "descri": 4052,
      "sketch": 4053,
      "scientist": 4054,
      "truths": 4055,
      "gym": 4056,
      "overhead": 4057,
      "learns": 4058,
      "bum": 4059,
      "max": 4060,
      "cris": 4061,
      "ignored": 4062,
      "checked": 4063,
      "ized": 4064,
      "ffin": 4065,
      "protected": 4066,
      "glistening": 4067,
      "carrots": 4068,
      "ctive": 4069,
      "vehic": 4070,
      "shut": 4071,
      "sets": 4072,
      "crumbling": 4073,
      "curren": 4074,
      "banan": 4075,
      "mysteries": 4076,
      "org": 4077,
      "preparing": 4078,
      "chur": 4079,
      "terrible": 4080,
      "encourage": 4081,
      "marks": 4082,
      "dances": 4083,
      "rious": 4084,
      "emotions": 4085,
      "fisherman": 4086,
      "pressure": 4087,
      "cats": 4088,
      "curtain": 4089,
      "flapping": 4090,
      "crunched": 4091,
      "wires": 4092,
      "sever": 4093,
      "speaking": 4094,
      "whim": 4095
    },
    "merges": [
      [
        "h",
        "e"
      ],
      [
        "t",
        "he"
      ],
      [
        "i",
        "n"
      ],
      [
        "e",
        "d"
      ],
      [
        "a",
        "n"
      ],
      [
        "r",
        "e"
      ],
      [
        "t",
        "o"
      ],
      [
        "o",
        "u"
      ],
      [
        "t",
        "h"
      ],
      [
        "e",
        "r"
      ],
      [
        "a",
        "r"
      ],
      [
        "in",
        "g"
      ],
      [
        "a",
        "s"
      ],
      [
        "an",
        "d"
      ],
      [
        "e",
        "n"
      ],
      [
        "o",
        "n"
      ],
      [
        "a",
        "t"
      ],
      [
        "s",
        "t"
      ],
      [
        "i",
        "t"
      ],
      [
        "a",
        "l"
      ],
      [
        "i",
        "s"
      ],
      [
        "e",
        "l"
      ],
      [
        "s",
        "he"
      ],
      [
        "l",
        "o"
      ],
      [
        "l",
        "e"
      ],
      [
        "g",
        "h"
      ],
      [
        "o",
        "f"
      ],
      [
        "the",
        "y"
      ],
      [
        "a",
        "d"
      ],
      [
        "e",
        "s"
      ],
      [
        "o",
        "r"
      ],
      [
        "he",
        "r"
      ],
      [
        "l",
        "d"
      ],
      [
        "w",
        "i"
      ],
      [
        "r",
        "i"
      ],
      [
        "gh",
        "t"
      ],
      [
        "i",
        "r"
      ],
      [
        "a",
        "c"
      ],
      [
        "m",
        "e"
      ],
      [
        "i",
        "d"
      ],
      [
        "o",
        "w"
      ],
      [
        "l",
        "i"
      ],
      [
        "s",
        "h"
      ],
      [
        "w",
        "as"
      ],
      [
        "b",
        "e"
      ],
      [
        "wi",
        "th"
      ],
      [
        "u",
        "t"
      ],
      [
        "a",
        "y"
      ],
      [
        "l",
        "y"
      ],
      [
        "a",
        "m"
      ],
      [
        "s",
        "e"
      ],
      [
        "i",
        "l"
      ],
      [
        "r",
        "o"
      ],
      [
        "b",
        "ut"
      ],
      [
        "i",
        "m"
      ],
      [
        "n",
        "d"
      ],
      [
        "h",
        "is"
      ],
      [
        "g",
        "e"
      ],
      [
        "k",
        "e"
      ],
      [
        "n",
        "e"
      ],
      [
        "v",
        "er"
      ],
      [
        "i",
        "c"
      ],
      [
        "th",
        "at"
      ],
      [
        "k",
        "ed"
      ],
      [
        "f",
        "el"
      ],
      [
        "s",
        "a"
      ],
      [
        "v",
        "e"
      ],
      [
        "the",
        "r"
      ],
      [
        "on",
        "e"
      ],
      [
        "fel",
        "t"
      ],
      [
        "c",
        "h"
      ],
      [
        "n",
        "o"
      ],
      [
        "ou",
        "nd"
      ],
      [
        "al",
        "l"
      ],
      [
        "f",
        "e"
      ],
      [
        "w",
        "e"
      ],
      [
        "ou",
        "ld"
      ],
      [
        "f",
        "or"
      ],
      [
        "b",
        "o"
      ],
      [
        "y",
        "ou"
      ],
      [
        "s",
        "to"
      ],
      [
        "en",
        "t"
      ],
      [
        "w",
        "h"
      ],
      [
        "c",
        "o"
      ],
      [
        "h",
        "ad"
      ],
      [
        "s",
        "p"
      ],
      [
        "ou",
        "t"
      ],
      [
        "ar",
        "t"
      ],
      [
        "a",
        "g"
      ],
      [
        "a",
        "p"
      ],
      [
        "in",
        "d"
      ],
      [
        "l",
        "ed"
      ],
      [
        "u",
        "r"
      ],
      [
        "u",
        "n"
      ],
      [
        "u",
        "re"
      ],
      [
        "s",
        "m"
      ],
      [
        "l",
        "a"
      ],
      [
        "s",
        "o"
      ],
      [
        "en",
        "d"
      ],
      [
        "he",
        "d"
      ],
      [
        "the",
        "ir"
      ],
      [
        "e",
        "x"
      ],
      [
        "an",
        "t"
      ],
      [
        "m",
        "o"
      ],
      [
        "lo",
        "w"
      ],
      [
        "d",
        "e"
      ],
      [
        "w",
        "or"
      ],
      [
        "p",
        "l"
      ],
      [
        "no",
        "t"
      ],
      [
        "o",
        "p"
      ],
      [
        "u",
        "st"
      ],
      [
        "j",
        "o"
      ],
      [
        "r",
        "a"
      ],
      [
        "u",
        "l"
      ],
      [
        "sa",
        "id"
      ],
      [
        "t",
        "re"
      ],
      [
        "f",
        "ri"
      ],
      [
        "fri",
        "end"
      ],
      [
        "h",
        "im"
      ],
      [
        "he",
        "art"
      ],
      [
        "d",
        "ay"
      ],
      [
        "t",
        "er"
      ],
      [
        "ar",
        "d"
      ],
      [
        "lo",
        "o"
      ],
      [
        "er",
        "ed"
      ],
      [
        "e",
        "p"
      ],
      [
        "n",
        "ed"
      ],
      [
        "c",
        "a"
      ],
      [
        "f",
        "o"
      ],
      [
        "w",
        "he"
      ],
      [
        "c",
        "e"
      ],
      [
        "c",
        "ould"
      ],
      [
        "ap",
        "p"
      ],
      [
        "r",
        "ou"
      ],
      [
        "la",
        "u"
      ],
      [
        "i",
        "f"
      ],
      [
        "n",
        "ow"
      ],
      [
        "ac",
        "h"
      ],
      [
        "c",
        "re"
      ],
      [
        "id",
        "e"
      ],
      [
        "ar",
        "k"
      ],
      [
        "f",
        "ound"
      ],
      [
        "i",
        "ght"
      ],
      [
        "e",
        "ver"
      ],
      [
        "w",
        "ay"
      ],
      [
        "ar",
        "ed"
      ],
      [
        "t",
        "r"
      ],
      [
        "li",
        "ke"
      ],
      [
        "on",
        "g"
      ],
      [
        "ro",
        "m"
      ],
      [
        "o",
        "ld"
      ],
      [
        "i",
        "a"
      ],
      [
        "m",
        "an"
      ],
      [
        "a",
        "in"
      ],
      [
        "i",
        "g"
      ],
      [
        "k",
        "ing"
      ],
      [
        "d",
        "o"
      ],
      [
        "to",
        "ge"
      ],
      [
        "toge",
        "ther"
      ],
      [
        "the",
        "m"
      ],
      [
        "a",
        "b"
      ],
      [
        "wh",
        "at"
      ],
      [
        "u",
        "p"
      ],
      [
        "o",
        "d"
      ],
      [
        "th",
        "is"
      ],
      [
        "d",
        "re"
      ],
      [
        "er",
        "s"
      ],
      [
        "g",
        "r"
      ],
      [
        "ri",
        "ght"
      ],
      [
        "e",
        "t"
      ],
      [
        "c",
        "an"
      ],
      [
        "ever",
        "y"
      ],
      [
        "ou",
        "ght"
      ],
      [
        "t",
        "ur"
      ],
      [
        "v",
        "ed"
      ],
      [
        "fe",
        "el"
      ],
      [
        "ir",
        "l"
      ],
      [
        "g",
        "irl"
      ],
      [
        "jo",
        "y"
      ],
      [
        "e",
        "ach"
      ],
      [
        "dre",
        "am"
      ],
      [
        "e",
        "m"
      ],
      [
        "li",
        "ght"
      ],
      [
        "f",
        "ul"
      ],
      [
        "ac",
        "e"
      ],
      [
        "ne",
        "w"
      ],
      [
        "d",
        "en"
      ],
      [
        "he",
        "l"
      ],
      [
        "th",
        "ing"
      ],
      [
        "ac",
        "k"
      ],
      [
        "al",
        "i"
      ],
      [
        "f",
        "il"
      ],
      [
        "b",
        "right"
      ],
      [
        "th",
        "ought"
      ],
      [
        "o",
        "k"
      ],
      [
        "we",
        "re"
      ],
      [
        "w",
        "ant"
      ],
      [
        "st",
        "ar"
      ],
      [
        "p",
        "ed"
      ],
      [
        "j",
        "ust"
      ],
      [
        "ab",
        "out"
      ],
      [
        "w",
        "ould"
      ],
      [
        "m",
        "b"
      ],
      [
        "f",
        "rom"
      ],
      [
        "t",
        "i"
      ],
      [
        "so",
        "me"
      ],
      [
        "p",
        "e"
      ],
      [
        "a",
        "re"
      ],
      [
        "st",
        "r"
      ],
      [
        "in",
        "to"
      ],
      [
        "bo",
        "y"
      ],
      [
        "w",
        "at"
      ],
      [
        "m",
        "ia"
      ],
      [
        "s",
        "ide"
      ],
      [
        "ow",
        "n"
      ],
      [
        "as",
        "t"
      ],
      [
        "u",
        "el"
      ],
      [
        "b",
        "ack"
      ],
      [
        "y",
        "es"
      ],
      [
        "fil",
        "led"
      ],
      [
        "le",
        "o"
      ],
      [
        "c",
        "it"
      ],
      [
        "es",
        "s"
      ],
      [
        "o",
        "ther"
      ],
      [
        "f",
        "ind"
      ],
      [
        "c",
        "k"
      ],
      [
        "ic",
        "e"
      ],
      [
        "l",
        "l"
      ],
      [
        "loo",
        "ked"
      ],
      [
        "hel",
        "p"
      ],
      [
        "d",
        "an"
      ],
      [
        "sm",
        "il"
      ],
      [
        "s",
        "ed"
      ],
      [
        "ad",
        "e"
      ],
      [
        "friend",
        "s"
      ],
      [
        "b",
        "y"
      ],
      [
        "whe",
        "n"
      ],
      [
        "le",
        "ar"
      ],
      [
        "as",
        "ure"
      ],
      [
        "s",
        "u"
      ],
      [
        "tre",
        "asure"
      ],
      [
        "g",
        "o"
      ],
      [
        "a",
        "ir"
      ],
      [
        "n",
        "ight"
      ],
      [
        "a",
        "v"
      ],
      [
        "s",
        "k"
      ],
      [
        "feel",
        "ing"
      ],
      [
        "w",
        "is"
      ],
      [
        "e",
        "yes"
      ],
      [
        "sm",
        "all"
      ],
      [
        "on",
        "d"
      ],
      [
        "b",
        "r"
      ],
      [
        "t",
        "ed"
      ],
      [
        "f",
        "low"
      ],
      [
        "r",
        "y"
      ],
      [
        "am",
        "ed"
      ],
      [
        "h",
        "app"
      ],
      [
        "sa",
        "w"
      ],
      [
        "smil",
        "ed"
      ],
      [
        "lo",
        "r"
      ],
      [
        "ri",
        "es"
      ],
      [
        "rou",
        "gh"
      ],
      [
        "q",
        "u"
      ],
      [
        "be",
        "g"
      ],
      [
        "th",
        "rough"
      ],
      [
        "s",
        "un"
      ],
      [
        "as",
        "ked"
      ],
      [
        "m",
        "ag"
      ],
      [
        "le",
        "t"
      ],
      [
        "m",
        "ade"
      ],
      [
        "mag",
        "ic"
      ],
      [
        "al",
        "ex"
      ],
      [
        "it",
        "s"
      ],
      [
        "u",
        "nd"
      ],
      [
        "ar",
        "ound"
      ],
      [
        "c",
        "lo"
      ],
      [
        "und",
        "er"
      ],
      [
        "lo",
        "st"
      ],
      [
        "i",
        "le"
      ],
      [
        "wor",
        "ld"
      ],
      [
        "pl",
        "ay"
      ],
      [
        "g",
        "re"
      ],
      [
        "cre",
        "at"
      ],
      [
        "h",
        "op"
      ],
      [
        "n",
        "amed"
      ],
      [
        "w",
        "o"
      ],
      [
        "c",
        "he"
      ],
      [
        "want",
        "ed"
      ],
      [
        "z",
        "ed"
      ],
      [
        "fo",
        "re"
      ],
      [
        "ti",
        "me"
      ],
      [
        "a",
        "ve"
      ],
      [
        "h",
        "o"
      ],
      [
        "a",
        "th"
      ],
      [
        "an",
        "ge"
      ],
      [
        "k",
        "now"
      ],
      [
        "t",
        "e"
      ],
      [
        "star",
        "s"
      ],
      [
        "i",
        "p"
      ],
      [
        "beg",
        "an"
      ],
      [
        "sk",
        "y"
      ],
      [
        "re",
        "ali"
      ],
      [
        "k",
        "im"
      ],
      [
        "sto",
        "ries"
      ],
      [
        "ou",
        "r"
      ],
      [
        "b",
        "ig"
      ],
      [
        "a",
        "ke"
      ],
      [
        "tur",
        "ned"
      ],
      [
        "ar",
        "m"
      ],
      [
        "c",
        "l"
      ],
      [
        "wh",
        "o"
      ],
      [
        "en",
        "ed"
      ],
      [
        "of",
        "t"
      ],
      [
        "in",
        "side"
      ],
      [
        "v",
        "ent"
      ],
      [
        "c",
        "hed"
      ],
      [
        "d",
        "s"
      ],
      [
        "s",
        "am"
      ],
      [
        "d",
        "ark"
      ],
      [
        "m",
        "y"
      ],
      [
        "il",
        "l"
      ],
      [
        "i",
        "on"
      ],
      [
        "ca",
        "me"
      ],
      [
        "sam",
        "uel"
      ],
      [
        "dream",
        "s"
      ],
      [
        "v",
        "en"
      ],
      [
        "s",
        "el"
      ],
      [
        "ght",
        "er"
      ],
      [
        "d",
        "den"
      ],
      [
        "se",
        "e"
      ],
      [
        "su",
        "dden"
      ],
      [
        "co",
        "lor"
      ],
      [
        "lear",
        "ned"
      ],
      [
        "wi",
        "ll"
      ],
      [
        "whe",
        "re"
      ],
      [
        "b",
        "u"
      ],
      [
        "re",
        "ad"
      ],
      [
        "t",
        "le"
      ],
      [
        "sudden",
        "ly"
      ],
      [
        "dan",
        "c"
      ],
      [
        "sto",
        "od"
      ],
      [
        "lo",
        "ve"
      ],
      [
        "g",
        "a"
      ],
      [
        "l",
        "ing"
      ],
      [
        "de",
        "c"
      ],
      [
        "ad",
        "vent"
      ],
      [
        "lau",
        "ghter"
      ],
      [
        "de",
        "ep"
      ],
      [
        "m",
        "ent"
      ],
      [
        "advent",
        "ure"
      ],
      [
        "mo",
        "re"
      ],
      [
        "sh",
        "ared"
      ],
      [
        "w",
        "al"
      ],
      [
        "ex",
        "cit"
      ],
      [
        "id",
        "ed"
      ],
      [
        "reali",
        "zed"
      ],
      [
        "r",
        "it"
      ],
      [
        "ch",
        "o"
      ],
      [
        "ag",
        "ain"
      ],
      [
        "th",
        "an"
      ],
      [
        "i",
        "e"
      ],
      [
        "ou",
        "s"
      ],
      [
        "g",
        "hed"
      ],
      [
        "lau",
        "ghed"
      ],
      [
        "l",
        "and"
      ],
      [
        "w",
        "his"
      ],
      [
        "h",
        "ow"
      ],
      [
        "sh",
        "ip"
      ],
      [
        "sp",
        "ark"
      ],
      [
        "c",
        "on"
      ],
      [
        "me",
        "mb"
      ],
      [
        "whis",
        "p"
      ],
      [
        "re",
        "n"
      ],
      [
        "st",
        "ep"
      ],
      [
        "mo",
        "ment"
      ],
      [
        "n",
        "ess"
      ],
      [
        "s",
        "s"
      ],
      [
        "the",
        "n"
      ],
      [
        "w",
        "arm"
      ],
      [
        "tr",
        "u"
      ],
      [
        "dec",
        "ided"
      ],
      [
        "some",
        "thing"
      ],
      [
        "t",
        "s"
      ],
      [
        "ad",
        "ow"
      ],
      [
        "e",
        "ven"
      ],
      [
        "j",
        "e"
      ],
      [
        "t",
        "al"
      ],
      [
        "sh",
        "in"
      ],
      [
        "re",
        "memb"
      ],
      [
        "h",
        "id"
      ],
      [
        "a",
        "f"
      ],
      [
        "s",
        "oft"
      ],
      [
        "a",
        "ut"
      ],
      [
        "l",
        "it"
      ],
      [
        "t",
        "ing"
      ],
      [
        "b",
        "el"
      ],
      [
        "the",
        "re"
      ],
      [
        "ex",
        "p"
      ],
      [
        "sh",
        "adow"
      ],
      [
        "k",
        "new"
      ],
      [
        "to",
        "ok"
      ],
      [
        "u",
        "s"
      ],
      [
        "f",
        "un"
      ],
      [
        "tre",
        "e"
      ],
      [
        "d",
        "own"
      ],
      [
        "b",
        "re"
      ],
      [
        "an",
        "g"
      ],
      [
        "a",
        "way"
      ],
      [
        "danc",
        "ed"
      ],
      [
        "i",
        "ld"
      ],
      [
        "ho",
        "me"
      ],
      [
        "op",
        "le"
      ],
      [
        "sel",
        "f"
      ],
      [
        "be",
        "aut"
      ],
      [
        "flow",
        "ers"
      ],
      [
        "ac",
        "hed"
      ],
      [
        "d",
        "id"
      ],
      [
        "g",
        "i"
      ],
      [
        "hop",
        "e"
      ],
      [
        "b",
        "ra"
      ],
      [
        "r",
        "u"
      ],
      [
        "sp",
        "o"
      ],
      [
        "pe",
        "ople"
      ],
      [
        "g",
        "ard"
      ],
      [
        "o",
        "ver"
      ],
      [
        "gard",
        "en"
      ],
      [
        "wal",
        "ked"
      ],
      [
        "w",
        "ond"
      ],
      [
        "m",
        "or"
      ],
      [
        "g",
        "low"
      ],
      [
        "c",
        "i"
      ],
      [
        "s",
        "ur"
      ],
      [
        "w",
        "ind"
      ],
      [
        "s",
        "ad"
      ],
      [
        "every",
        "one"
      ],
      [
        "n",
        "ing"
      ],
      [
        "to",
        "w"
      ],
      [
        "co",
        "me"
      ],
      [
        "sh",
        "ow"
      ],
      [
        "h",
        "and"
      ],
      [
        "str",
        "ange"
      ],
      [
        "ri",
        "ed"
      ],
      [
        "f",
        "in"
      ],
      [
        "ac",
        "ed"
      ],
      [
        "p",
        "r"
      ],
      [
        "s",
        "at"
      ],
      [
        "at",
        "e"
      ],
      [
        "rit",
        "a"
      ],
      [
        "c",
        "u"
      ],
      [
        "fe",
        "ar"
      ],
      [
        "v",
        "o"
      ],
      [
        "in",
        "k"
      ],
      [
        "hid",
        "den"
      ],
      [
        "d",
        "d"
      ],
      [
        "sh",
        "out"
      ],
      [
        "way",
        "s"
      ],
      [
        "m",
        "ind"
      ],
      [
        "pl",
        "an"
      ],
      [
        "h",
        "ave"
      ],
      [
        "in",
        "ed"
      ],
      [
        "co",
        "ver"
      ],
      [
        "a",
        "k"
      ],
      [
        "wat",
        "er"
      ],
      [
        "s",
        "c"
      ],
      [
        "o",
        "m"
      ],
      [
        "li",
        "ly"
      ],
      [
        "se",
        "cre"
      ],
      [
        "al",
        "ly"
      ],
      [
        "m",
        "ap"
      ],
      [
        "m",
        "ar"
      ],
      [
        "w",
        "a"
      ],
      [
        "af",
        "ter"
      ],
      [
        "se",
        "t"
      ],
      [
        "p",
        "ain"
      ],
      [
        "happ",
        "y"
      ],
      [
        "ic",
        "k"
      ],
      [
        "pl",
        "ace"
      ],
      [
        "shout",
        "ed"
      ],
      [
        "ful",
        "l"
      ],
      [
        "f",
        "i"
      ],
      [
        "i",
        "es"
      ],
      [
        "ar",
        "ing"
      ],
      [
        "lo",
        "ved"
      ],
      [
        "bra",
        "ve"
      ],
      [
        "to",
        "o"
      ],
      [
        "lit",
        "tle"
      ],
      [
        "c",
        "r"
      ],
      [
        "color",
        "s"
      ],
      [
        "know",
        "ing"
      ],
      [
        "is",
        "h"
      ],
      [
        "co",
        "m"
      ],
      [
        "str",
        "ong"
      ],
      [
        "sm",
        "ile"
      ],
      [
        "cu",
        "ri"
      ],
      [
        "al",
        "ways"
      ],
      [
        "i",
        "st"
      ],
      [
        "b",
        "b"
      ],
      [
        "to",
        "ld"
      ],
      [
        "ne",
        "ed"
      ],
      [
        "sto",
        "ry"
      ],
      [
        "fore",
        "st"
      ],
      [
        "li",
        "fe"
      ],
      [
        "k",
        "ind"
      ],
      [
        "tre",
        "es"
      ],
      [
        "other",
        "s"
      ],
      [
        "u",
        "m"
      ],
      [
        "m",
        "ake"
      ],
      [
        "vo",
        "ice"
      ],
      [
        "sp",
        "e"
      ],
      [
        "p",
        "o"
      ],
      [
        "cl",
        "ou"
      ],
      [
        "you",
        "r"
      ],
      [
        "el",
        "l"
      ],
      [
        "ga",
        "ther"
      ],
      [
        "l",
        "ong"
      ],
      [
        "sh",
        "are"
      ],
      [
        "f",
        "ly"
      ],
      [
        "g",
        "u"
      ],
      [
        "creat",
        "ure"
      ],
      [
        "b",
        "ir"
      ],
      [
        "shadow",
        "s"
      ],
      [
        "cit",
        "y"
      ],
      [
        "whisp",
        "ered"
      ],
      [
        "l",
        "u"
      ],
      [
        "v",
        "il"
      ],
      [
        "re",
        "p"
      ],
      [
        "li",
        "st"
      ],
      [
        "wat",
        "ched"
      ],
      [
        "al",
        "one"
      ],
      [
        "re",
        "ached"
      ],
      [
        "is",
        "e"
      ],
      [
        "s",
        "il"
      ],
      [
        "do",
        "or"
      ],
      [
        "r",
        "an"
      ],
      [
        "is",
        "ed"
      ],
      [
        "h",
        "ard"
      ],
      [
        "t",
        "in"
      ],
      [
        "if",
        "ul"
      ],
      [
        "beaut",
        "iful"
      ],
      [
        "c",
        "all"
      ],
      [
        "e",
        "ar"
      ],
      [
        "s",
        "w"
      ],
      [
        "d",
        "is"
      ],
      [
        "vil",
        "la"
      ],
      [
        "a",
        "king"
      ],
      [
        "ch",
        "ild"
      ],
      [
        "he",
        "ld"
      ],
      [
        "op",
        "ened"
      ],
      [
        "fo",
        "l"
      ],
      [
        "av",
        "es"
      ],
      [
        "so",
        "on"
      ],
      [
        "f",
        "le"
      ],
      [
        "sto",
        "ne"
      ],
      [
        "wh",
        "ile"
      ],
      [
        "lau",
        "gh"
      ],
      [
        "al",
        "ice"
      ],
      [
        "sp",
        "ir"
      ],
      [
        "read",
        "y"
      ],
      [
        "ro",
        "om"
      ],
      [
        "bo",
        "ok"
      ],
      [
        "p",
        "ow"
      ],
      [
        "at",
        "ed"
      ],
      [
        "sh",
        "o"
      ],
      [
        "as",
        "s"
      ],
      [
        "ca",
        "ve"
      ],
      [
        "friend",
        "ship"
      ],
      [
        "mar",
        "ia"
      ],
      [
        "en",
        "ce"
      ],
      [
        "m",
        "ust"
      ],
      [
        "he",
        "ard"
      ],
      [
        "me",
        "mor"
      ],
      [
        "villa",
        "ge"
      ],
      [
        "rememb",
        "ered"
      ],
      [
        "wor",
        "k"
      ],
      [
        "l",
        "en"
      ],
      [
        "an",
        "y"
      ],
      [
        "p",
        "ic"
      ],
      [
        "i",
        "ly"
      ],
      [
        "fol",
        "low"
      ],
      [
        "tru",
        "e"
      ],
      [
        "jo",
        "se"
      ],
      [
        "f",
        "re"
      ],
      [
        "st",
        "e"
      ],
      [
        "s",
        "it"
      ],
      [
        "p",
        "t"
      ],
      [
        "b",
        "le"
      ],
      [
        "p",
        "rom"
      ],
      [
        "of",
        "f"
      ],
      [
        "excit",
        "ed"
      ],
      [
        "ch",
        "ing"
      ],
      [
        "ra",
        "in"
      ],
      [
        "c",
        "li"
      ],
      [
        "f",
        "ace"
      ],
      [
        "t",
        "all"
      ],
      [
        "man",
        "y"
      ],
      [
        "le",
        "ad"
      ],
      [
        "ic",
        "ed"
      ],
      [
        "pow",
        "er"
      ],
      [
        "je",
        "an"
      ],
      [
        "s",
        "er"
      ],
      [
        "sh",
        "aring"
      ],
      [
        "er",
        "ing"
      ],
      [
        "se",
        "ar"
      ],
      [
        "g",
        "old"
      ],
      [
        "p",
        "ath"
      ],
      [
        "sto",
        "r"
      ],
      [
        "wis",
        "h"
      ],
      [
        "loo",
        "k"
      ],
      [
        "cover",
        "ed"
      ],
      [
        "s",
        "now"
      ],
      [
        "len",
        "a"
      ],
      [
        "f",
        "ish"
      ],
      [
        "gi",
        "ant"
      ],
      [
        "m",
        "ed"
      ],
      [
        "ne",
        "x"
      ],
      [
        "ne",
        "ver"
      ],
      [
        "p",
        "art"
      ],
      [
        "curi",
        "ous"
      ],
      [
        "em",
        "ent"
      ],
      [
        "gr",
        "ound"
      ],
      [
        "on",
        "ly"
      ],
      [
        "gre",
        "w"
      ],
      [
        "p",
        "ul"
      ],
      [
        "fin",
        "ally"
      ],
      [
        "br",
        "ing"
      ],
      [
        "on",
        "ce"
      ],
      [
        "bre",
        "ath"
      ],
      [
        "sur",
        "pr"
      ],
      [
        "bo",
        "th"
      ],
      [
        "c",
        "ou"
      ],
      [
        "let",
        "ter"
      ],
      [
        "play",
        "ed"
      ],
      [
        "f",
        "t"
      ],
      [
        "no",
        "dd"
      ],
      [
        "f",
        "am"
      ],
      [
        "step",
        "ped"
      ],
      [
        "wa",
        "it"
      ],
      [
        "at",
        "ion"
      ],
      [
        "nodd",
        "ed"
      ],
      [
        "rou",
        "d"
      ],
      [
        "che",
        "ered"
      ],
      [
        "stor",
        "m"
      ],
      [
        "be",
        "came"
      ],
      [
        "f",
        "a"
      ],
      [
        "p",
        "roud"
      ],
      [
        "i",
        "gh"
      ],
      [
        "spo",
        "ke"
      ],
      [
        "li",
        "ed"
      ],
      [
        "excit",
        "ement"
      ],
      [
        "st",
        "art"
      ],
      [
        "wor",
        "ds"
      ],
      [
        "d",
        "r"
      ],
      [
        "se",
        "em"
      ],
      [
        "t",
        "im"
      ],
      [
        "ci",
        "al"
      ],
      [
        "bel",
        "ie"
      ],
      [
        "ca",
        "re"
      ],
      [
        "you",
        "n"
      ],
      [
        "spe",
        "cial"
      ],
      [
        "v",
        "al"
      ],
      [
        "youn",
        "g"
      ],
      [
        "be",
        "st"
      ],
      [
        "qu",
        "i"
      ],
      [
        "day",
        "s"
      ],
      [
        "not",
        "iced"
      ],
      [
        "exp",
        "lo"
      ],
      [
        "tow",
        "n"
      ],
      [
        "gather",
        "ed"
      ],
      [
        "man",
        "uel"
      ],
      [
        "em",
        "manuel"
      ],
      [
        "rep",
        "lied"
      ],
      [
        "cli",
        "mb"
      ],
      [
        "qui",
        "et"
      ],
      [
        "tur",
        "n"
      ],
      [
        "ro",
        "ck"
      ],
      [
        "gr",
        "ow"
      ],
      [
        "wo",
        "man"
      ],
      [
        "t",
        "ain"
      ],
      [
        "gre",
        "at"
      ],
      [
        "clou",
        "ds"
      ],
      [
        "explo",
        "re"
      ],
      [
        "be",
        "h"
      ],
      [
        "s",
        "ound"
      ],
      [
        "beh",
        "ind"
      ],
      [
        "warm",
        "th"
      ],
      [
        "c",
        "t"
      ],
      [
        "fle",
        "w"
      ],
      [
        "v",
        "el"
      ],
      [
        "u",
        "g"
      ],
      [
        "b",
        "ro"
      ],
      [
        "he",
        "av"
      ],
      [
        "p",
        "ast"
      ],
      [
        "soft",
        "ly"
      ],
      [
        "re",
        "turned"
      ],
      [
        "clo",
        "ser"
      ],
      [
        "nex",
        "t"
      ],
      [
        "m",
        "ay"
      ],
      [
        "call",
        "ed"
      ],
      [
        "bir",
        "d"
      ],
      [
        "n",
        "y"
      ],
      [
        "o",
        "l"
      ],
      [
        "u",
        "sed"
      ],
      [
        "f",
        "ir"
      ],
      [
        "st",
        "ill"
      ],
      [
        "le",
        "s"
      ],
      [
        "ac",
        "es"
      ],
      [
        "ri",
        "ver"
      ],
      [
        "be",
        "t"
      ],
      [
        "g",
        "ent"
      ],
      [
        "ro",
        "te"
      ],
      [
        "f",
        "l"
      ],
      [
        "ra",
        "bb"
      ],
      [
        "bo",
        "t"
      ],
      [
        "be",
        "ing"
      ],
      [
        "ke",
        "ep"
      ],
      [
        "he",
        "re"
      ],
      [
        "a",
        "bo"
      ],
      [
        "c",
        "ar"
      ],
      [
        "ke",
        "t"
      ],
      [
        "t",
        "ake"
      ],
      [
        "spark",
        "led"
      ],
      [
        "e",
        "cho"
      ],
      [
        "tim",
        "es"
      ],
      [
        "seem",
        "ed"
      ],
      [
        "flow",
        "er"
      ],
      [
        "ti",
        "on"
      ],
      [
        "heart",
        "s"
      ],
      [
        "app",
        "e"
      ],
      [
        "p",
        "u"
      ],
      [
        "be",
        "fore"
      ],
      [
        "she",
        "d"
      ],
      [
        "ou",
        "d"
      ],
      [
        "tin",
        "y"
      ],
      [
        "it",
        "e"
      ],
      [
        "ne",
        "ar"
      ],
      [
        "im",
        "ag"
      ],
      [
        "ch",
        "ange"
      ],
      [
        "ste",
        "ad"
      ],
      [
        "in",
        "ess"
      ],
      [
        "appe",
        "ared"
      ],
      [
        "ra",
        "ge"
      ],
      [
        "loo",
        "king"
      ],
      [
        "s",
        "ing"
      ],
      [
        "p",
        "re"
      ],
      [
        "abo",
        "ve"
      ],
      [
        "dr",
        "ag"
      ],
      [
        "v",
        "ing"
      ],
      [
        "st",
        "and"
      ],
      [
        "j",
        "our"
      ],
      [
        "f",
        "lo"
      ],
      [
        "c",
        "at"
      ],
      [
        "drag",
        "on"
      ],
      [
        "v",
        "is"
      ],
      [
        "memor",
        "ies"
      ],
      [
        "list",
        "ened"
      ],
      [
        "al",
        "s"
      ],
      [
        "st",
        "u"
      ],
      [
        "fam",
        "ily"
      ],
      [
        "heav",
        "y"
      ],
      [
        "fel",
        "l"
      ],
      [
        "z",
        "ing"
      ],
      [
        "cou",
        "rage"
      ],
      [
        "ou",
        "n"
      ],
      [
        "st",
        "er"
      ],
      [
        "s",
        "low"
      ],
      [
        "wh",
        "y"
      ],
      [
        "j",
        "um"
      ],
      [
        "fir",
        "st"
      ],
      [
        "re",
        "al"
      ],
      [
        "ne",
        "y"
      ],
      [
        "r",
        "aced"
      ],
      [
        "jour",
        "ney"
      ],
      [
        "go",
        "t"
      ],
      [
        "wor",
        "ked"
      ],
      [
        "t",
        "ri"
      ],
      [
        "s",
        "we"
      ],
      [
        "d",
        "if"
      ],
      [
        "f",
        "li"
      ],
      [
        "p",
        "ped"
      ],
      [
        "fe",
        "ren"
      ],
      [
        "bo",
        "x"
      ],
      [
        "al",
        "so"
      ],
      [
        "dif",
        "feren"
      ],
      [
        "mo",
        "ther"
      ],
      [
        "wis",
        "e"
      ],
      [
        "c",
        "ast"
      ],
      [
        "h",
        "old"
      ],
      [
        "prom",
        "ised"
      ],
      [
        "secre",
        "ts"
      ],
      [
        "out",
        "side"
      ],
      [
        "magic",
        "al"
      ],
      [
        "an",
        "ce"
      ],
      [
        "go",
        "od"
      ],
      [
        "ali",
        "ve"
      ],
      [
        "v",
        "es"
      ],
      [
        "me",
        "t"
      ],
      [
        "in",
        "stead"
      ],
      [
        "re",
        "mind"
      ],
      [
        "rou",
        "ght"
      ],
      [
        "tr",
        "y"
      ],
      [
        "l",
        "oud"
      ],
      [
        "tr",
        "ust"
      ],
      [
        "her",
        "o"
      ],
      [
        "ke",
        "y"
      ],
      [
        "thing",
        "s"
      ],
      [
        "him",
        "self"
      ],
      [
        "b",
        "rought"
      ],
      [
        "happ",
        "iness"
      ],
      [
        "dan",
        "ce"
      ],
      [
        "he",
        "ad"
      ],
      [
        "as",
        "sed"
      ],
      [
        "an",
        "ne"
      ],
      [
        "as",
        "h"
      ],
      [
        "in",
        "king"
      ],
      [
        "m",
        "is"
      ],
      [
        "secre",
        "t"
      ],
      [
        "glow",
        "ing"
      ],
      [
        "g",
        "ed"
      ],
      [
        "kind",
        "ness"
      ],
      [
        "se",
        "a"
      ],
      [
        "her",
        "self"
      ],
      [
        "ing",
        "s"
      ],
      [
        "qu",
        "e"
      ],
      [
        "c",
        "le"
      ],
      [
        "d",
        "in"
      ],
      [
        "shin",
        "y"
      ],
      [
        "pe",
        "ter"
      ],
      [
        "laugh",
        "ing"
      ],
      [
        "st",
        "re"
      ],
      [
        "h",
        "igh"
      ],
      [
        "y",
        "et"
      ],
      [
        "p",
        "assed"
      ],
      [
        "t",
        "ell"
      ],
      [
        "color",
        "ful"
      ],
      [
        "fre",
        "e"
      ],
      [
        "slow",
        "ly"
      ],
      [
        "may",
        "be"
      ],
      [
        "n",
        "er"
      ],
      [
        "s",
        "wi"
      ],
      [
        "wond",
        "er"
      ],
      [
        "z",
        "e"
      ],
      [
        "le",
        "ft"
      ],
      [
        "show",
        "ed"
      ],
      [
        "wond",
        "ered"
      ],
      [
        "l",
        "ast"
      ],
      [
        "o",
        "se"
      ],
      [
        "op",
        "en"
      ],
      [
        "start",
        "ed"
      ],
      [
        "th",
        "inking"
      ],
      [
        "ou",
        "se"
      ],
      [
        "shin",
        "ing"
      ],
      [
        "mo",
        "on"
      ],
      [
        "hand",
        "s"
      ],
      [
        "ge",
        "t"
      ],
      [
        "spo",
        "t"
      ],
      [
        "sc",
        "ared"
      ],
      [
        "in",
        "e"
      ],
      [
        "ali",
        "en"
      ],
      [
        "jo",
        "in"
      ],
      [
        "adventure",
        "s"
      ],
      [
        "under",
        "stood"
      ],
      [
        "w",
        "all"
      ],
      [
        "ga",
        "me"
      ],
      [
        "swe",
        "et"
      ],
      [
        "wo",
        "od"
      ],
      [
        "ro",
        "bot"
      ],
      [
        "av",
        "ing"
      ],
      [
        "app",
        "ed"
      ],
      [
        "te",
        "am"
      ],
      [
        "wi",
        "de"
      ],
      [
        "w",
        "in"
      ],
      [
        "t",
        "ra"
      ],
      [
        "do",
        "m"
      ],
      [
        "g",
        "rou"
      ],
      [
        "grou",
        "p"
      ],
      [
        "tru",
        "th"
      ],
      [
        "pic",
        "ked"
      ],
      [
        "ra",
        "w"
      ],
      [
        "differen",
        "t"
      ],
      [
        "w",
        "el"
      ],
      [
        "qu",
        "ick"
      ],
      [
        "ow",
        "l"
      ],
      [
        "oun",
        "tain"
      ],
      [
        "climb",
        "ed"
      ],
      [
        "f",
        "ad"
      ],
      [
        "c",
        "la"
      ],
      [
        "sa",
        "ur"
      ],
      [
        "li",
        "ved"
      ],
      [
        "c",
        "el"
      ],
      [
        "m",
        "aking"
      ],
      [
        "b",
        "en"
      ],
      [
        "is",
        "land"
      ],
      [
        "th",
        "ink"
      ],
      [
        "w",
        "rote"
      ],
      [
        "r",
        "ow"
      ],
      [
        "f",
        "ig"
      ],
      [
        "p",
        "ark"
      ],
      [
        "am",
        "a"
      ],
      [
        "spir",
        "it"
      ],
      [
        "gr",
        "and"
      ],
      [
        "le",
        "ss"
      ],
      [
        "pl",
        "ant"
      ],
      [
        "b",
        "l"
      ],
      [
        "fig",
        "ure"
      ],
      [
        "ac",
        "ing"
      ],
      [
        "con",
        "ne"
      ],
      [
        "e",
        "br"
      ],
      [
        "t",
        "w"
      ],
      [
        "to",
        "u"
      ],
      [
        "din",
        "o"
      ],
      [
        "some",
        "times"
      ],
      [
        "we",
        "ight"
      ],
      [
        "cla",
        "im"
      ],
      [
        "h",
        "ill"
      ],
      [
        "p",
        "or"
      ],
      [
        "bu",
        "ild"
      ],
      [
        "follow",
        "ed"
      ],
      [
        "it",
        "y"
      ],
      [
        "ch",
        "ang"
      ],
      [
        "t",
        "wi"
      ],
      [
        "el",
        "y"
      ],
      [
        "w",
        "aves"
      ],
      [
        "f",
        "air"
      ],
      [
        "f",
        "ar"
      ],
      [
        "tal",
        "es"
      ],
      [
        "s",
        "ong"
      ],
      [
        "cel",
        "ebr"
      ],
      [
        "dis",
        "covered"
      ],
      [
        "st",
        "ren"
      ],
      [
        "stren",
        "g"
      ],
      [
        "r",
        "un"
      ],
      [
        "dino",
        "saur"
      ],
      [
        "rememb",
        "er"
      ],
      [
        "le",
        "aves"
      ],
      [
        "p",
        "er"
      ],
      [
        "streng",
        "th"
      ],
      [
        "w",
        "ent"
      ],
      [
        "k",
        "id"
      ],
      [
        "child",
        "ren"
      ],
      [
        "k",
        "s"
      ],
      [
        "every",
        "thing"
      ],
      [
        "b",
        "loo"
      ],
      [
        "tur",
        "tle"
      ],
      [
        "creature",
        "s"
      ],
      [
        "sh",
        "ould"
      ],
      [
        "co",
        "ld"
      ],
      [
        "jum",
        "ped"
      ],
      [
        "y",
        "ear"
      ],
      [
        "c",
        "tion"
      ],
      [
        "w",
        "and"
      ],
      [
        "ca",
        "u"
      ],
      [
        "d",
        "raw"
      ],
      [
        "im",
        "m"
      ],
      [
        "bet",
        "ter"
      ],
      [
        "ro",
        "ss"
      ],
      [
        "s",
        "y"
      ],
      [
        "be",
        "en"
      ],
      [
        "beaut",
        "y"
      ],
      [
        "m",
        "us"
      ],
      [
        "c",
        "ry"
      ],
      [
        "w",
        "r"
      ],
      [
        "p",
        "ir"
      ],
      [
        "mus",
        "ic"
      ],
      [
        "c",
        "ap"
      ],
      [
        "wait",
        "ing"
      ],
      [
        "th",
        "ose"
      ],
      [
        "an",
        "im"
      ],
      [
        "sh",
        "imm"
      ],
      [
        "bright",
        "er"
      ],
      [
        "d",
        "ust"
      ],
      [
        "m",
        "ir"
      ],
      [
        "m",
        "ountain"
      ],
      [
        "claim",
        "ed"
      ],
      [
        "s",
        "ang"
      ],
      [
        "kid",
        "s"
      ],
      [
        "wis",
        "hed"
      ],
      [
        "p",
        "ie"
      ],
      [
        "tw",
        "ink"
      ],
      [
        "mo",
        "ved"
      ],
      [
        "ful",
        "ly"
      ],
      [
        "f",
        "all"
      ],
      [
        "ver",
        "y"
      ],
      [
        "at",
        "ter"
      ],
      [
        "d",
        "i"
      ],
      [
        "am",
        "ong"
      ],
      [
        "clo",
        "sed"
      ],
      [
        "ag",
        "re"
      ],
      [
        "w",
        "ard"
      ],
      [
        "fo",
        "od"
      ],
      [
        "con",
        "f"
      ],
      [
        "creat",
        "e"
      ],
      [
        "oft",
        "en"
      ],
      [
        "ac",
        "t"
      ],
      [
        "to",
        "y"
      ],
      [
        "t",
        "en"
      ],
      [
        "fa",
        "ther"
      ],
      [
        "cast",
        "le"
      ],
      [
        "st",
        "ay"
      ],
      [
        "s",
        "ay"
      ],
      [
        "is",
        "hed"
      ],
      [
        "m",
        "u"
      ],
      [
        "fo",
        "x"
      ],
      [
        "tra",
        "vel"
      ],
      [
        "surpr",
        "ise"
      ],
      [
        "fly",
        "ing"
      ],
      [
        "s",
        "sed"
      ],
      [
        "ar",
        "ri"
      ],
      [
        "che",
        "st"
      ],
      [
        "ig",
        "g"
      ],
      [
        "echo",
        "ed"
      ],
      [
        "deep",
        "er"
      ],
      [
        "sad",
        "ness"
      ],
      [
        "light",
        "s"
      ],
      [
        "with",
        "out"
      ],
      [
        "app",
        "ro"
      ],
      [
        "need",
        "ed"
      ],
      [
        "st",
        "ed"
      ],
      [
        "anim",
        "als"
      ],
      [
        "chang",
        "ed"
      ],
      [
        "under",
        "stand"
      ],
      [
        "b",
        "all"
      ],
      [
        "mb",
        "led"
      ],
      [
        "hel",
        "ped"
      ],
      [
        "p",
        "ro"
      ],
      [
        "sp",
        "ace"
      ],
      [
        "sh",
        "one"
      ],
      [
        "rabb",
        "it"
      ],
      [
        "il",
        "t"
      ],
      [
        "fi",
        "re"
      ],
      [
        "l",
        "ay"
      ],
      [
        "c",
        "ked"
      ],
      [
        "dream",
        "ed"
      ],
      [
        "g",
        "as"
      ],
      [
        "exp",
        "lor"
      ],
      [
        "ex",
        "claimed"
      ],
      [
        "on",
        "s"
      ],
      [
        "b",
        "ond"
      ],
      [
        "to",
        "p"
      ],
      [
        "in",
        "s"
      ],
      [
        "m",
        "m"
      ],
      [
        "than",
        "k"
      ],
      [
        "i",
        "x"
      ],
      [
        "c",
        "ted"
      ],
      [
        "an",
        "other"
      ],
      [
        "agre",
        "ed"
      ],
      [
        "play",
        "ing"
      ],
      [
        "fad",
        "ed"
      ],
      [
        "g",
        "l"
      ],
      [
        "s",
        "en"
      ],
      [
        "e",
        "ag"
      ],
      [
        "l",
        "on"
      ],
      [
        "se",
        "en"
      ],
      [
        "d",
        "es"
      ],
      [
        "b",
        "lu"
      ],
      [
        "to",
        "day"
      ],
      [
        "g",
        "er"
      ],
      [
        "l",
        "s"
      ],
      [
        "tow",
        "ard"
      ],
      [
        "fun",
        "ny"
      ],
      [
        "re",
        "turn"
      ],
      [
        "ar",
        "y"
      ],
      [
        "ac",
        "ross"
      ],
      [
        "sw",
        "am"
      ],
      [
        "ce",
        "an"
      ],
      [
        "o",
        "cean"
      ],
      [
        "s",
        "and"
      ],
      [
        "clo",
        "se"
      ],
      [
        "wood",
        "s"
      ],
      [
        "po",
        "in"
      ],
      [
        "quick",
        "ly"
      ],
      [
        "it",
        "ed"
      ],
      [
        "r",
        "ed"
      ],
      [
        "s",
        "ig"
      ],
      [
        "dark",
        "ness"
      ],
      [
        "wat",
        "ching"
      ],
      [
        "land",
        "ed"
      ],
      [
        "sh",
        "ap"
      ],
      [
        "p",
        "le"
      ],
      [
        "h",
        "ouse"
      ],
      [
        "treasure",
        "s"
      ],
      [
        "fore",
        "ver"
      ],
      [
        "glow",
        "ed"
      ],
      [
        "strong",
        "er"
      ],
      [
        "fair",
        "y"
      ],
      [
        "ter",
        "m"
      ],
      [
        "ben",
        "e"
      ],
      [
        "bene",
        "ath"
      ],
      [
        "appro",
        "ached"
      ],
      [
        "flo",
        "ated"
      ],
      [
        "in",
        "v"
      ],
      [
        "gas",
        "ped"
      ],
      [
        "blu",
        "e"
      ],
      [
        "fli",
        "ck"
      ],
      [
        "t",
        "ight"
      ],
      [
        "sear",
        "ched"
      ],
      [
        "bo",
        "at"
      ],
      [
        "sa",
        "fe"
      ],
      [
        "am",
        "es"
      ],
      [
        "d",
        "ist"
      ],
      [
        "c",
        "or"
      ],
      [
        "bright",
        "ly"
      ],
      [
        "some",
        "one"
      ],
      [
        "wall",
        "s"
      ],
      [
        "sil",
        "ly"
      ],
      [
        "spot",
        "ted"
      ],
      [
        "he",
        "s"
      ],
      [
        "a",
        "u"
      ],
      [
        "r",
        "acing"
      ],
      [
        "h",
        "un"
      ],
      [
        "gent",
        "le"
      ],
      [
        "ro",
        "l"
      ],
      [
        "por",
        "t"
      ],
      [
        "help",
        "ing"
      ],
      [
        "w",
        "rit"
      ],
      [
        "em",
        "pt"
      ],
      [
        "t",
        "ried"
      ],
      [
        "lu",
        "is"
      ],
      [
        "n",
        "es"
      ],
      [
        "m",
        "ix"
      ],
      [
        "as",
        "hed"
      ],
      [
        "ide",
        "a"
      ],
      [
        "cry",
        "st"
      ],
      [
        "with",
        "in"
      ],
      [
        "spark",
        "ling"
      ],
      [
        "i",
        "ble"
      ],
      [
        "for",
        "ward"
      ],
      [
        "an",
        "s"
      ],
      [
        "ou",
        "gh"
      ],
      [
        "empt",
        "y"
      ],
      [
        "hop",
        "ing"
      ],
      [
        "eag",
        "er"
      ],
      [
        "de",
        "term"
      ],
      [
        "bu",
        "ilt"
      ],
      [
        "for",
        "got"
      ],
      [
        "sto",
        "nes"
      ],
      [
        "r",
        "or"
      ],
      [
        "f",
        "ast"
      ],
      [
        "s",
        "cho"
      ],
      [
        "gent",
        "ly"
      ],
      [
        "an",
        "sw"
      ],
      [
        "ill",
        "ag"
      ],
      [
        "v",
        "illag"
      ],
      [
        "cr",
        "ow"
      ],
      [
        "try",
        "ing"
      ],
      [
        "he",
        "ar"
      ],
      [
        "she",
        "ll"
      ],
      [
        "f",
        "aced"
      ],
      [
        "g",
        "igg"
      ],
      [
        "ru",
        "sh"
      ],
      [
        "pain",
        "ted"
      ],
      [
        "p",
        "ing"
      ],
      [
        "whisp",
        "ers"
      ],
      [
        "g",
        "if"
      ],
      [
        "as",
        "e"
      ],
      [
        "king",
        "dom"
      ],
      [
        "imag",
        "ined"
      ],
      [
        "villag",
        "ers"
      ],
      [
        "mir",
        "ror"
      ],
      [
        "el",
        "led"
      ],
      [
        "wand",
        "ered"
      ],
      [
        "up",
        "on"
      ],
      [
        "jo",
        "ined"
      ],
      [
        "list",
        "en"
      ],
      [
        "arri",
        "ved"
      ],
      [
        "al",
        "ong"
      ],
      [
        "do",
        "g"
      ],
      [
        "i",
        "val"
      ],
      [
        "lon",
        "ely"
      ],
      [
        "wa",
        "ved"
      ],
      [
        "pul",
        "led"
      ],
      [
        "th",
        "ri"
      ],
      [
        "sear",
        "ching"
      ],
      [
        "che",
        "s"
      ],
      [
        "re",
        "ach"
      ],
      [
        "stre",
        "et"
      ],
      [
        "h",
        "ur"
      ],
      [
        "at",
        "ing"
      ],
      [
        "scho",
        "ol"
      ],
      [
        "c",
        "and"
      ],
      [
        "p",
        "ass"
      ],
      [
        "le",
        "ave"
      ],
      [
        "shin",
        "e"
      ],
      [
        "again",
        "st"
      ],
      [
        "mor",
        "ning"
      ],
      [
        "gi",
        "ve"
      ],
      [
        "le",
        "aving"
      ],
      [
        "wind",
        "ow"
      ],
      [
        "pul",
        "l"
      ],
      [
        "fe",
        "st"
      ],
      [
        "re",
        "ve"
      ],
      [
        "clou",
        "d"
      ],
      [
        "plan",
        "et"
      ],
      [
        "c",
        "ket"
      ],
      [
        "sit",
        "y"
      ],
      [
        "swi",
        "r"
      ],
      [
        "we",
        "e"
      ],
      [
        "fi",
        "el"
      ],
      [
        "h",
        "one"
      ],
      [
        "o",
        "sity"
      ],
      [
        "but",
        "ter"
      ],
      [
        "reve",
        "al"
      ],
      [
        "bre",
        "e"
      ],
      [
        "t",
        "wo"
      ],
      [
        "m",
        "ight"
      ],
      [
        "ab",
        "le"
      ],
      [
        "fest",
        "ival"
      ],
      [
        "tri",
        "ck"
      ],
      [
        "f",
        "ro"
      ],
      [
        "lead",
        "er"
      ],
      [
        "c",
        "ried"
      ],
      [
        "sa",
        "il"
      ],
      [
        "bel",
        "ow"
      ],
      [
        "s",
        "qu"
      ],
      [
        "gr",
        "ass"
      ],
      [
        "crow",
        "d"
      ],
      [
        "r",
        "ace"
      ],
      [
        "pain",
        "ting"
      ],
      [
        "a",
        "w"
      ],
      [
        "cre",
        "w"
      ],
      [
        "ru",
        "shed"
      ],
      [
        "w",
        "ave"
      ],
      [
        "o",
        "st"
      ],
      [
        "even",
        "ing"
      ],
      [
        "g",
        "ames"
      ],
      [
        "sto",
        "pped"
      ],
      [
        "bel",
        "ong"
      ],
      [
        "reali",
        "zing"
      ],
      [
        "ri",
        "dd"
      ],
      [
        "in",
        "spir"
      ],
      [
        "pu",
        "shed"
      ],
      [
        "r",
        "ound"
      ],
      [
        "pie",
        "ce"
      ],
      [
        "th",
        "ick"
      ],
      [
        "ar",
        "s"
      ],
      [
        "s",
        "n"
      ],
      [
        "at",
        "t"
      ],
      [
        "gh",
        "ost"
      ],
      [
        "k",
        "night"
      ],
      [
        "sho",
        "ok"
      ],
      [
        "mo",
        "st"
      ],
      [
        "fear",
        "s"
      ],
      [
        "belie",
        "ve"
      ],
      [
        "near",
        "by"
      ],
      [
        "know",
        "n"
      ],
      [
        "le",
        "y"
      ],
      [
        "w",
        "ings"
      ],
      [
        "m",
        "on"
      ],
      [
        "bree",
        "ze"
      ],
      [
        "for",
        "med"
      ],
      [
        "lear",
        "n"
      ],
      [
        "se",
        "ed"
      ],
      [
        "c",
        "lear"
      ],
      [
        "me",
        "et"
      ],
      [
        "letter",
        "s"
      ],
      [
        "mu",
        "ch"
      ],
      [
        "creat",
        "ed"
      ],
      [
        "at",
        "er"
      ],
      [
        "conne",
        "ction"
      ],
      [
        "g",
        "one"
      ],
      [
        "ke",
        "pt"
      ],
      [
        "f",
        "ight"
      ],
      [
        "cryst",
        "al"
      ],
      [
        "bro",
        "ther"
      ],
      [
        "danc",
        "ing"
      ],
      [
        "smil",
        "ing"
      ],
      [
        "belie",
        "ved"
      ],
      [
        "all",
        "en"
      ],
      [
        "ch",
        "allen"
      ],
      [
        "im",
        "port"
      ],
      [
        "in",
        "ation"
      ],
      [
        "gold",
        "en"
      ],
      [
        "stu",
        "mbled"
      ],
      [
        "h",
        "our"
      ],
      [
        "sil",
        "ence"
      ],
      [
        "ed",
        "ge"
      ],
      [
        "t",
        "ure"
      ],
      [
        "sun",
        "ny"
      ],
      [
        "surpr",
        "ised"
      ],
      [
        "en",
        "joy"
      ],
      [
        "en",
        "er"
      ],
      [
        "twink",
        "led"
      ],
      [
        "wor",
        "ried"
      ],
      [
        "sen",
        "se"
      ],
      [
        "sp",
        "read"
      ],
      [
        "dream",
        "ing"
      ],
      [
        "wis",
        "hes"
      ],
      [
        "not",
        "e"
      ],
      [
        "f",
        "r"
      ],
      [
        "curi",
        "osity"
      ],
      [
        "ic",
        "es"
      ],
      [
        "m",
        "atter"
      ],
      [
        "r",
        "ing"
      ],
      [
        "br",
        "an"
      ],
      [
        "a",
        "ge"
      ],
      [
        "at",
        "es"
      ],
      [
        "s",
        "or"
      ],
      [
        "hold",
        "ing"
      ],
      [
        "i",
        "b"
      ],
      [
        "to",
        "r"
      ],
      [
        "a",
        "ked"
      ],
      [
        "g",
        "y"
      ],
      [
        "d",
        "on"
      ],
      [
        "c",
        "al"
      ],
      [
        "see",
        "k"
      ],
      [
        "in",
        "es"
      ],
      [
        "tal",
        "ked"
      ],
      [
        "i",
        "ous"
      ],
      [
        "bir",
        "ds"
      ],
      [
        "li",
        "es"
      ],
      [
        "sho",
        "re"
      ],
      [
        "dust",
        "y"
      ],
      [
        "care",
        "fully"
      ],
      [
        "je",
        "ster"
      ],
      [
        "fl",
        "ash"
      ],
      [
        "b",
        "ow"
      ],
      [
        "explore",
        "r"
      ],
      [
        "f",
        "f"
      ],
      [
        "hone",
        "st"
      ],
      [
        "k",
        "en"
      ],
      [
        "b",
        "ri"
      ],
      [
        "f",
        "aces"
      ],
      [
        "sound",
        "s"
      ],
      [
        "pir",
        "ate"
      ],
      [
        "the",
        "se"
      ],
      [
        "su",
        "g"
      ],
      [
        "co",
        "ol"
      ],
      [
        "than",
        "ked"
      ],
      [
        "com",
        "ing"
      ],
      [
        "moment",
        "s"
      ],
      [
        "sit",
        "ting"
      ],
      [
        "b",
        "al"
      ],
      [
        "ak",
        "es"
      ],
      [
        "cl",
        "u"
      ],
      [
        "pe",
        "ace"
      ],
      [
        "rol",
        "led"
      ],
      [
        "b",
        "es"
      ],
      [
        "s",
        "ion"
      ],
      [
        "gu",
        "ard"
      ],
      [
        "ci",
        "ent"
      ],
      [
        "pr",
        "in"
      ],
      [
        "wr",
        "ong"
      ],
      [
        "h",
        "ug"
      ],
      [
        "b",
        "ur"
      ],
      [
        "g",
        "rabb"
      ],
      [
        "p",
        "ond"
      ],
      [
        "s",
        "ist"
      ],
      [
        "m",
        "s"
      ],
      [
        "thought",
        "s"
      ],
      [
        "f",
        "ted"
      ],
      [
        "smile",
        "s"
      ],
      [
        "u",
        "ck"
      ],
      [
        "s",
        "up"
      ],
      [
        "sp",
        "l"
      ],
      [
        "ama",
        "zing"
      ],
      [
        "we",
        "en"
      ],
      [
        "con",
        "tin"
      ],
      [
        "contin",
        "u"
      ],
      [
        "any",
        "thing"
      ],
      [
        "sur",
        "round"
      ],
      [
        "sp",
        "ent"
      ],
      [
        "tal",
        "e"
      ],
      [
        "bes",
        "ide"
      ],
      [
        "cau",
        "ght"
      ],
      [
        "gr",
        "in"
      ],
      [
        "f",
        "ut"
      ],
      [
        "ear",
        "th"
      ],
      [
        "inspir",
        "ed"
      ],
      [
        "sy",
        "m"
      ],
      [
        "v",
        "i"
      ],
      [
        "ide",
        "as"
      ],
      [
        "l",
        "ater"
      ],
      [
        "a",
        "ther"
      ],
      [
        "fut",
        "ure"
      ],
      [
        "s",
        "li"
      ],
      [
        "s",
        "ure"
      ],
      [
        "grand",
        "mother"
      ],
      [
        "cand",
        "y"
      ],
      [
        "h",
        "as"
      ],
      [
        "ad",
        "d"
      ],
      [
        "que",
        "st"
      ],
      [
        "sel",
        "y"
      ],
      [
        "memor",
        "y"
      ],
      [
        "find",
        "ing"
      ],
      [
        "clo",
        "sely"
      ],
      [
        "v",
        "ous"
      ],
      [
        "pl",
        "aces"
      ],
      [
        "bro",
        "ken"
      ],
      [
        "m",
        "ist"
      ],
      [
        "pl",
        "aced"
      ],
      [
        "s",
        "ence"
      ],
      [
        "wi",
        "ld"
      ],
      [
        "t",
        "el"
      ],
      [
        "be",
        "ach"
      ],
      [
        "w",
        "ar"
      ],
      [
        "import",
        "ant"
      ],
      [
        "rain",
        "bow"
      ],
      [
        "t",
        "il"
      ],
      [
        "rock",
        "s"
      ],
      [
        "me",
        "an"
      ],
      [
        "te",
        "ars"
      ],
      [
        "every",
        "where"
      ],
      [
        "bet",
        "ween"
      ],
      [
        "grabb",
        "ed"
      ],
      [
        "sym",
        "bo"
      ],
      [
        "fil",
        "ling"
      ],
      [
        "h",
        "u"
      ],
      [
        "ion",
        "s"
      ],
      [
        "tou",
        "ched"
      ],
      [
        "z",
        "z"
      ],
      [
        "sto",
        "p"
      ],
      [
        "hour",
        "s"
      ],
      [
        "ag",
        "o"
      ],
      [
        "d",
        "ou"
      ],
      [
        "ridd",
        "le"
      ],
      [
        "sug",
        "ge"
      ],
      [
        "gif",
        "t"
      ],
      [
        "long",
        "er"
      ],
      [
        "an",
        "cient"
      ],
      [
        "b",
        "or"
      ],
      [
        "ner",
        "vous"
      ],
      [
        "song",
        "s"
      ],
      [
        "dou",
        "b"
      ],
      [
        "creat",
        "ing"
      ],
      [
        "exp",
        "la"
      ],
      [
        "fa",
        "il"
      ],
      [
        "p",
        "ri"
      ],
      [
        "g",
        "ave"
      ],
      [
        "n",
        "a"
      ],
      [
        "d",
        "ge"
      ],
      [
        "pain",
        "t"
      ],
      [
        "clo",
        "ck"
      ],
      [
        "quiet",
        "ly"
      ],
      [
        "year",
        "s"
      ],
      [
        "did",
        "n"
      ],
      [
        "i",
        "ver"
      ],
      [
        "dis",
        "cover"
      ],
      [
        "in",
        "vis"
      ],
      [
        "wor",
        "d"
      ],
      [
        "determ",
        "ined"
      ],
      [
        "car",
        "ry"
      ],
      [
        "sugge",
        "sted"
      ],
      [
        "understand",
        "ing"
      ],
      [
        "conf",
        "used"
      ],
      [
        "c",
        "our"
      ],
      [
        "re",
        "l"
      ],
      [
        "ama",
        "zed"
      ],
      [
        "an",
        "k"
      ],
      [
        "gre",
        "en"
      ],
      [
        "ant",
        "ed"
      ],
      [
        "pic",
        "ture"
      ],
      [
        "com",
        "es"
      ],
      [
        "end",
        "ed"
      ],
      [
        "be",
        "ar"
      ],
      [
        "tr",
        "ans"
      ],
      [
        "p",
        "et"
      ],
      [
        "m",
        "ach"
      ],
      [
        "je",
        "wel"
      ],
      [
        "poin",
        "ted"
      ],
      [
        "val",
        "ley"
      ],
      [
        "cle",
        "ver"
      ],
      [
        "tight",
        "ly"
      ],
      [
        "k",
        "ite"
      ],
      [
        "feel",
        "s"
      ],
      [
        "t",
        "aking"
      ],
      [
        "t",
        "y"
      ],
      [
        "d",
        "ri"
      ],
      [
        "c",
        "es"
      ],
      [
        "h",
        "at"
      ],
      [
        "u",
        "se"
      ],
      [
        "wee",
        "ks"
      ],
      [
        "m",
        "a"
      ],
      [
        "light",
        "er"
      ],
      [
        "br",
        "u"
      ],
      [
        "ac",
        "ked"
      ],
      [
        "bloo",
        "med"
      ],
      [
        "y",
        "elled"
      ],
      [
        "surround",
        "ed"
      ],
      [
        "part",
        "y"
      ],
      [
        "co",
        "ok"
      ],
      [
        "sist",
        "er"
      ],
      [
        "de",
        "ar"
      ],
      [
        "fe",
        "ather"
      ],
      [
        "ang",
        "er"
      ],
      [
        "co",
        "l"
      ],
      [
        "ra",
        "id"
      ],
      [
        "cor",
        "ner"
      ],
      [
        "wo",
        "ke"
      ],
      [
        "run",
        "ning"
      ],
      [
        "happ",
        "en"
      ],
      [
        "wait",
        "ed"
      ],
      [
        "cal",
        "m"
      ],
      [
        "so",
        "l"
      ],
      [
        "cau",
        "se"
      ],
      [
        "writ",
        "e"
      ],
      [
        "na",
        "me"
      ],
      [
        "forgot",
        "ten"
      ],
      [
        "bloo",
        "m"
      ],
      [
        "toy",
        "s"
      ],
      [
        "la",
        "ke"
      ],
      [
        "k",
        "es"
      ],
      [
        "squ",
        "ir"
      ],
      [
        "ent",
        "ered"
      ],
      [
        "af",
        "raid"
      ],
      [
        "mo",
        "ve"
      ],
      [
        "explor",
        "ed"
      ],
      [
        "n",
        "s"
      ],
      [
        "lo",
        "ss"
      ],
      [
        "continu",
        "ed"
      ],
      [
        "inv",
        "ited"
      ],
      [
        "so",
        "ared"
      ],
      [
        "shimm",
        "ered"
      ],
      [
        "ent",
        "er"
      ],
      [
        "wat",
        "ch"
      ],
      [
        "ble",
        "w"
      ],
      [
        "ch",
        "ance"
      ],
      [
        "dan",
        "ger"
      ],
      [
        "b",
        "it"
      ],
      [
        "ug",
        "g"
      ],
      [
        "for",
        "t"
      ],
      [
        "y",
        "ard"
      ],
      [
        "f",
        "ade"
      ],
      [
        "em",
        "br"
      ],
      [
        "no",
        "ise"
      ],
      [
        "h",
        "ig"
      ],
      [
        "sa",
        "me"
      ],
      [
        "fin",
        "ished"
      ],
      [
        "thri",
        "ll"
      ],
      [
        "shimm",
        "ering"
      ],
      [
        "team",
        "work"
      ],
      [
        "dist",
        "ance"
      ],
      [
        "a",
        "head"
      ],
      [
        "bu",
        "bb"
      ],
      [
        "expla",
        "ined"
      ],
      [
        "ir",
        "ed"
      ],
      [
        "my",
        "ster"
      ],
      [
        "hur",
        "t"
      ],
      [
        "fiel",
        "d"
      ],
      [
        "li",
        "ves"
      ],
      [
        "friend",
        "ly"
      ],
      [
        "re",
        "ally"
      ],
      [
        "fi",
        "x"
      ],
      [
        "un",
        "til"
      ],
      [
        "au",
        "ght"
      ],
      [
        "tr",
        "ay"
      ],
      [
        "ener",
        "gy"
      ],
      [
        "bri",
        "dge"
      ],
      [
        "f",
        "ru"
      ],
      [
        "per",
        "fe"
      ],
      [
        "be",
        "cause"
      ],
      [
        "r",
        "ust"
      ],
      [
        "fro",
        "g"
      ],
      [
        "p",
        "ut"
      ],
      [
        "mountain",
        "s"
      ],
      [
        "go",
        "ing"
      ],
      [
        "mis",
        "sed"
      ],
      [
        "p",
        "rote"
      ],
      [
        "remind",
        "er"
      ],
      [
        "t",
        "aught"
      ],
      [
        "invis",
        "ible"
      ],
      [
        "bal",
        "lo"
      ],
      [
        "for",
        "m"
      ],
      [
        "reveal",
        "ing"
      ],
      [
        "c",
        "ir"
      ],
      [
        "he",
        "sit"
      ],
      [
        "th",
        "re"
      ],
      [
        "tr",
        "apped"
      ],
      [
        "g",
        "li"
      ],
      [
        "ate",
        "ful"
      ],
      [
        "ir",
        "t"
      ],
      [
        "plan",
        "ned"
      ],
      [
        "st",
        "ared"
      ],
      [
        "butter",
        "fly"
      ],
      [
        "for",
        "get"
      ],
      [
        "que",
        "en"
      ],
      [
        "vel",
        "y"
      ],
      [
        "av",
        "or"
      ],
      [
        "f",
        "avor"
      ],
      [
        "on",
        "to"
      ],
      [
        "street",
        "s"
      ],
      [
        "p",
        "ap"
      ],
      [
        "re",
        "fle"
      ],
      [
        "cat",
        "ch"
      ],
      [
        "wis",
        "dom"
      ],
      [
        "show",
        "ing"
      ],
      [
        "k",
        "it"
      ],
      [
        "be",
        "tray"
      ],
      [
        "cho",
        "ice"
      ],
      [
        "gr",
        "y"
      ],
      [
        "tal",
        "k"
      ],
      [
        "seed",
        "s"
      ],
      [
        "perfe",
        "ct"
      ],
      [
        "wond",
        "ers"
      ],
      [
        "ro",
        "p"
      ],
      [
        "pir",
        "ates"
      ],
      [
        "ch",
        "ill"
      ],
      [
        "vis",
        "it"
      ],
      [
        "l",
        "ar"
      ],
      [
        "squir",
        "rel"
      ],
      [
        "favor",
        "ite"
      ],
      [
        "no",
        "thing"
      ],
      [
        "t",
        "ired"
      ],
      [
        "fi",
        "er"
      ],
      [
        "by",
        "e"
      ],
      [
        "good",
        "bye"
      ],
      [
        "as",
        "k"
      ],
      [
        "s",
        "ent"
      ],
      [
        "w",
        "ell"
      ],
      [
        "a",
        "un"
      ],
      [
        "tr",
        "ad"
      ],
      [
        "sig",
        "hed"
      ],
      [
        "id",
        "ing"
      ],
      [
        "en",
        "ch"
      ],
      [
        "ch",
        "as"
      ],
      [
        "wo",
        "re"
      ],
      [
        "p",
        "ers"
      ],
      [
        "as",
        "ter"
      ],
      [
        "att",
        "ic"
      ],
      [
        "e",
        "st"
      ],
      [
        "jewel",
        "s"
      ],
      [
        "gigg",
        "led"
      ],
      [
        "explor",
        "ing"
      ],
      [
        "remind",
        "ed"
      ],
      [
        "us",
        "ing"
      ],
      [
        "gr",
        "ateful"
      ],
      [
        "fli",
        "es"
      ],
      [
        "less",
        "on"
      ],
      [
        "e",
        "f"
      ],
      [
        "b",
        "lo"
      ],
      [
        "prom",
        "ise"
      ],
      [
        "plant",
        "s"
      ],
      [
        "pre",
        "ssed"
      ],
      [
        "hig",
        "her"
      ],
      [
        "wor",
        "king"
      ],
      [
        "arm",
        "s"
      ],
      [
        "bro",
        "ke"
      ],
      [
        "t",
        "able"
      ],
      [
        "sp",
        "aces"
      ],
      [
        "tel",
        "ling"
      ],
      [
        "sun",
        "light"
      ],
      [
        "on",
        "es"
      ],
      [
        "g",
        "es"
      ],
      [
        "en",
        "ough"
      ],
      [
        "trans",
        "formed"
      ],
      [
        "fe",
        "et"
      ],
      [
        "s",
        "im"
      ],
      [
        "str",
        "ugg"
      ],
      [
        "tou",
        "ch"
      ],
      [
        "li",
        "br"
      ],
      [
        "bu",
        "sy"
      ],
      [
        "ro",
        "se"
      ],
      [
        "in",
        "ning"
      ],
      [
        "m",
        "es"
      ],
      [
        "bra",
        "very"
      ],
      [
        "p",
        "a"
      ],
      [
        "me",
        "ant"
      ],
      [
        "pers",
        "on"
      ],
      [
        "ench",
        "anted"
      ],
      [
        "ok",
        "ay"
      ],
      [
        "d",
        "el"
      ],
      [
        "p",
        "ur"
      ],
      [
        "can",
        "not"
      ],
      [
        "o",
        "h"
      ],
      [
        "p",
        "rep"
      ],
      [
        "gli",
        "mm"
      ],
      [
        "pr",
        "act"
      ],
      [
        "pe",
        "cted"
      ],
      [
        "ro",
        "cket"
      ],
      [
        "sil",
        "ent"
      ],
      [
        "doub",
        "t"
      ],
      [
        "hug",
        "ged"
      ],
      [
        "sa",
        "ve"
      ],
      [
        "de",
        "cl"
      ],
      [
        "pap",
        "er"
      ],
      [
        "ge",
        "st"
      ],
      [
        "sing",
        "ing"
      ],
      [
        "p",
        "y"
      ],
      [
        "fre",
        "ed"
      ],
      [
        "ak",
        "en"
      ],
      [
        "answ",
        "er"
      ],
      [
        "n",
        "el"
      ],
      [
        "decl",
        "ared"
      ],
      [
        "mis",
        "sion"
      ],
      [
        "pu",
        "sh"
      ],
      [
        "alien",
        "s"
      ],
      [
        "h",
        "aun"
      ],
      [
        "flick",
        "ered"
      ],
      [
        "h",
        "ip"
      ],
      [
        "v",
        "an"
      ],
      [
        "e",
        "y"
      ],
      [
        "c",
        "ra"
      ],
      [
        "re",
        "m"
      ],
      [
        "gu",
        "ide"
      ],
      [
        "stu",
        "ck"
      ],
      [
        "spaces",
        "hip"
      ],
      [
        "cr",
        "own"
      ],
      [
        "a",
        "il"
      ],
      [
        "win",
        "ter"
      ],
      [
        "libr",
        "ary"
      ],
      [
        "ib",
        "il"
      ],
      [
        "sil",
        "ver"
      ],
      [
        "bre",
        "ak"
      ],
      [
        "es",
        "cap"
      ],
      [
        "l",
        "ine"
      ],
      [
        "te",
        "ac"
      ],
      [
        "happ",
        "ened"
      ],
      [
        "remind",
        "ing"
      ],
      [
        "bur",
        "st"
      ],
      [
        "cap",
        "tain"
      ],
      [
        "t",
        "ast"
      ],
      [
        "bran",
        "ches"
      ],
      [
        "echo",
        "ing"
      ],
      [
        "world",
        "s"
      ],
      [
        "is",
        "ing"
      ],
      [
        "l",
        "ant"
      ],
      [
        "che",
        "er"
      ],
      [
        "pre",
        "t"
      ],
      [
        "sail",
        "ed"
      ],
      [
        "ge",
        "m"
      ],
      [
        "c",
        "ed"
      ],
      [
        "p",
        "an"
      ],
      [
        "hid",
        "ing"
      ],
      [
        "sel",
        "ves"
      ],
      [
        "say",
        "ing"
      ],
      [
        "co",
        "ins"
      ],
      [
        "hesit",
        "ated"
      ],
      [
        "power",
        "ful"
      ],
      [
        "re",
        "sp"
      ],
      [
        "draw",
        "n"
      ],
      [
        "ack",
        "s"
      ],
      [
        "o",
        "s"
      ],
      [
        "ac",
        "c"
      ],
      [
        "at",
        "ure"
      ],
      [
        "trad",
        "it"
      ],
      [
        "lant",
        "er"
      ],
      [
        "celebr",
        "ated"
      ],
      [
        "s",
        "ou"
      ],
      [
        "sm",
        "ell"
      ],
      [
        "h",
        "ide"
      ],
      [
        "fier",
        "ce"
      ],
      [
        "on",
        "t"
      ],
      [
        "how",
        "ever"
      ],
      [
        "twi",
        "r"
      ],
      [
        "p",
        "h"
      ],
      [
        "c",
        "ro"
      ],
      [
        "ag",
        "ed"
      ],
      [
        "se",
        "as"
      ],
      [
        "ne",
        "igh"
      ],
      [
        "any",
        "one"
      ],
      [
        "neigh",
        "bor"
      ],
      [
        "ca",
        "ke"
      ],
      [
        "grow",
        "ing"
      ],
      [
        "g",
        "ing"
      ],
      [
        "to",
        "ry"
      ],
      [
        "be",
        "y"
      ],
      [
        "sear",
        "ch"
      ],
      [
        "i",
        "re"
      ],
      [
        "b",
        "ag"
      ],
      [
        "bru",
        "sh"
      ],
      [
        "do",
        "es"
      ],
      [
        "shap",
        "e"
      ],
      [
        "sh",
        "if"
      ],
      [
        "h",
        "it"
      ],
      [
        "f",
        "ing"
      ],
      [
        "p",
        "our"
      ],
      [
        "re",
        "st"
      ],
      [
        "tal",
        "king"
      ],
      [
        "th",
        "ough"
      ],
      [
        "honest",
        "y"
      ],
      [
        "te",
        "st"
      ],
      [
        "sim",
        "ple"
      ],
      [
        "ven",
        "ge"
      ],
      [
        "wor",
        "ry"
      ],
      [
        "off",
        "ered"
      ],
      [
        "rem",
        "ain"
      ],
      [
        "book",
        "s"
      ],
      [
        "fo",
        "g"
      ],
      [
        "dinosaur",
        "s"
      ],
      [
        "eager",
        "ly"
      ],
      [
        "dist",
        "ant"
      ],
      [
        "sh",
        "y"
      ],
      [
        "moon",
        "light"
      ],
      [
        "no",
        "on"
      ],
      [
        "happ",
        "ily"
      ],
      [
        "car",
        "ried"
      ],
      [
        "t",
        "aken"
      ],
      [
        "re",
        "venge"
      ],
      [
        "whisp",
        "er"
      ],
      [
        "tur",
        "ning"
      ],
      [
        "is",
        "es"
      ],
      [
        "bl",
        "an"
      ],
      [
        "challen",
        "ge"
      ],
      [
        "bey",
        "ond"
      ],
      [
        "ate",
        "st"
      ],
      [
        "hero",
        "es"
      ],
      [
        "he",
        "al"
      ],
      [
        "hill",
        "s"
      ],
      [
        "teac",
        "her"
      ],
      [
        "mo",
        "ving"
      ],
      [
        "fil",
        "l"
      ],
      [
        "f",
        "ought"
      ],
      [
        "hun",
        "g"
      ],
      [
        "cre",
        "pt"
      ],
      [
        "i",
        "an"
      ],
      [
        "build",
        "ing"
      ],
      [
        "shap",
        "es"
      ],
      [
        "wonder",
        "ful"
      ],
      [
        "river",
        "s"
      ],
      [
        "n",
        "ature"
      ],
      [
        "m",
        "ouse"
      ],
      [
        "travel",
        "ed"
      ],
      [
        "prin",
        "ce"
      ],
      [
        "c",
        "ess"
      ],
      [
        "o",
        "t"
      ],
      [
        "sor",
        "row"
      ],
      [
        "pa",
        "used"
      ],
      [
        "cle",
        "an"
      ],
      [
        "tru",
        "ly"
      ],
      [
        "call",
        "ing"
      ],
      [
        "d",
        "ug"
      ],
      [
        "fe",
        "w"
      ],
      [
        "lead",
        "ing"
      ],
      [
        "after",
        "noon"
      ],
      [
        "imag",
        "ination"
      ],
      [
        "was",
        "h"
      ],
      [
        "gre",
        "atest"
      ],
      [
        "feeling",
        "s"
      ],
      [
        "c",
        "enter"
      ],
      [
        "rememb",
        "ering"
      ],
      [
        "vo",
        "ices"
      ],
      [
        "spl",
        "ash"
      ],
      [
        "p",
        "ound"
      ],
      [
        "un",
        "sure"
      ],
      [
        "hel",
        "lo"
      ],
      [
        "un",
        "iver"
      ],
      [
        "c",
        "ting"
      ],
      [
        "bu",
        "ried"
      ],
      [
        "li",
        "fted"
      ],
      [
        "end",
        "ing"
      ],
      [
        "gu",
        "iding"
      ],
      [
        "be",
        "come"
      ],
      [
        "m",
        "el"
      ],
      [
        "ag",
        "es"
      ],
      [
        "univer",
        "se"
      ],
      [
        "van",
        "ished"
      ],
      [
        "wal",
        "king"
      ],
      [
        "twi",
        "sted"
      ],
      [
        "sig",
        "n"
      ],
      [
        "lar",
        "ge"
      ],
      [
        "wind",
        "s"
      ],
      [
        "sli",
        "pped"
      ],
      [
        "je",
        "ct"
      ],
      [
        "cl",
        "apped"
      ],
      [
        "plan",
        "s"
      ],
      [
        "hop",
        "es"
      ],
      [
        "haun",
        "ted"
      ],
      [
        "c",
        "ur"
      ],
      [
        "twi",
        "st"
      ],
      [
        "w",
        "on"
      ],
      [
        "cook",
        "ies"
      ],
      [
        "v",
        "ast"
      ],
      [
        "mon",
        "ster"
      ],
      [
        "d",
        "er"
      ],
      [
        "wel",
        "come"
      ],
      [
        "w",
        "ow"
      ],
      [
        "s",
        "cre"
      ],
      [
        "st",
        "ick"
      ],
      [
        "ro",
        "ll"
      ],
      [
        "flow",
        "ed"
      ],
      [
        "belie",
        "ving"
      ],
      [
        "t",
        "each"
      ],
      [
        "p",
        "acked"
      ],
      [
        "r",
        "ise"
      ],
      [
        "com",
        "pass"
      ],
      [
        "con",
        "t"
      ],
      [
        "re",
        "s"
      ],
      [
        "travel",
        "er"
      ],
      [
        "bring",
        "ing"
      ],
      [
        "ic",
        "h"
      ],
      [
        "prote",
        "ct"
      ],
      [
        "un",
        "g"
      ],
      [
        "pe",
        "ar"
      ],
      [
        "wh",
        "ich"
      ],
      [
        "ent",
        "s"
      ],
      [
        "f",
        "lu"
      ],
      [
        "freed",
        "om"
      ],
      [
        "gl",
        "ass"
      ],
      [
        "sa",
        "ved"
      ],
      [
        "le",
        "g"
      ],
      [
        "she",
        "l"
      ],
      [
        "path",
        "s"
      ],
      [
        "ballo",
        "on"
      ],
      [
        "c",
        "her"
      ],
      [
        "stand",
        "ing"
      ],
      [
        "she",
        "s"
      ],
      [
        "ch",
        "a"
      ],
      [
        "col",
        "le"
      ],
      [
        "b",
        "at"
      ],
      [
        "could",
        "n"
      ],
      [
        "com",
        "ed"
      ],
      [
        "el",
        "f"
      ],
      [
        "su",
        "mm"
      ],
      [
        "am",
        "p"
      ],
      [
        "b",
        "ed"
      ],
      [
        "escap",
        "e"
      ],
      [
        "gi",
        "ving"
      ],
      [
        "h",
        "or"
      ],
      [
        "to",
        "n"
      ],
      [
        "ab",
        "sence"
      ],
      [
        "li",
        "ft"
      ],
      [
        "acc",
        "ep"
      ],
      [
        "d",
        "y"
      ],
      [
        "ro",
        "bo"
      ],
      [
        "pe",
        "e"
      ],
      [
        "spe",
        "ak"
      ],
      [
        "d",
        "aw"
      ],
      [
        "mb",
        "ling"
      ],
      [
        "sur",
        "face"
      ],
      [
        "led",
        "ge"
      ],
      [
        "symbo",
        "l"
      ],
      [
        "flu",
        "ff"
      ],
      [
        "wel",
        "comed"
      ],
      [
        "swir",
        "led"
      ],
      [
        "lo",
        "ck"
      ],
      [
        "le",
        "ap"
      ],
      [
        "celebr",
        "ation"
      ],
      [
        "snow",
        "man"
      ],
      [
        "vi",
        "br"
      ],
      [
        "tow",
        "er"
      ],
      [
        "s",
        "ought"
      ],
      [
        "big",
        "ger"
      ],
      [
        "them",
        "selves"
      ],
      [
        "t",
        "rou"
      ],
      [
        "ey",
        "e"
      ],
      [
        "pu",
        "zz"
      ],
      [
        "cou",
        "n"
      ],
      [
        "d",
        "one"
      ],
      [
        "cro",
        "ssed"
      ],
      [
        "care",
        "ful"
      ],
      [
        "mach",
        "ine"
      ],
      [
        "ibil",
        "ity"
      ],
      [
        "fing",
        "ers"
      ],
      [
        "stre",
        "am"
      ],
      [
        "i",
        "er"
      ],
      [
        "s",
        "way"
      ],
      [
        "joy",
        "ful"
      ],
      [
        "know",
        "ledge"
      ],
      [
        "sp",
        "ring"
      ],
      [
        "cr",
        "uel"
      ],
      [
        "ro",
        "ared"
      ],
      [
        "un",
        "ity"
      ],
      [
        "ap",
        "s"
      ],
      [
        "o",
        "ts"
      ],
      [
        "ip",
        "ped"
      ],
      [
        "daw",
        "n"
      ],
      [
        "cha",
        "os"
      ],
      [
        "wish",
        "ing"
      ],
      [
        "m",
        "id"
      ],
      [
        "whisp",
        "ering"
      ],
      [
        "al",
        "most"
      ],
      [
        "ben",
        "ch"
      ],
      [
        "vibr",
        "ant"
      ],
      [
        "bring",
        "s"
      ],
      [
        "robo",
        "ts"
      ],
      [
        "creat",
        "i"
      ],
      [
        "f",
        "ur"
      ],
      [
        "em",
        "er"
      ],
      [
        "sm",
        "o"
      ],
      [
        "be",
        "at"
      ],
      [
        "fr",
        "ont"
      ],
      [
        "f",
        "la"
      ],
      [
        "u",
        "nex"
      ],
      [
        "t",
        "ail"
      ],
      [
        "war",
        "ned"
      ],
      [
        "big",
        "gest"
      ],
      [
        "unex",
        "pected"
      ],
      [
        "g",
        "ri"
      ],
      [
        "st",
        "ro"
      ],
      [
        "celebr",
        "ate"
      ],
      [
        "belong",
        "ed"
      ],
      [
        "sn",
        "acks"
      ],
      [
        "c",
        "er"
      ],
      [
        "do",
        "ing"
      ],
      [
        "p",
        "ar"
      ],
      [
        "m",
        "er"
      ],
      [
        "embr",
        "ace"
      ],
      [
        "gu",
        "ed"
      ],
      [
        "add",
        "ed"
      ],
      [
        "p",
        "up"
      ],
      [
        "blan",
        "ket"
      ],
      [
        "p",
        "ages"
      ],
      [
        "v",
        "as"
      ],
      [
        "pro",
        "ble"
      ],
      [
        "can",
        "vas"
      ],
      [
        "sol",
        "ve"
      ],
      [
        "resp",
        "ons"
      ],
      [
        "beg",
        "inning"
      ],
      [
        "ie",
        "f"
      ],
      [
        "determ",
        "ination"
      ],
      [
        "sm",
        "art"
      ],
      [
        "e",
        "as"
      ],
      [
        "step",
        "s"
      ],
      [
        "wor",
        "th"
      ],
      [
        "gr",
        "ant"
      ],
      [
        "z",
        "y"
      ],
      [
        "cl",
        "ass"
      ],
      [
        "gather",
        "ing"
      ],
      [
        "b",
        "ar"
      ],
      [
        "pound",
        "ing"
      ],
      [
        "sh",
        "op"
      ],
      [
        "v",
        "ity"
      ],
      [
        "look",
        "s"
      ],
      [
        "butter",
        "flies"
      ],
      [
        "ig",
        "n"
      ],
      [
        "cr",
        "ashed"
      ],
      [
        "star",
        "ing"
      ],
      [
        "fl",
        "ut"
      ],
      [
        "trou",
        "ble"
      ],
      [
        "toward",
        "s"
      ],
      [
        "fre",
        "sh"
      ],
      [
        "spir",
        "its"
      ],
      [
        "prep",
        "ared"
      ],
      [
        "fiel",
        "ds"
      ],
      [
        "how",
        "led"
      ],
      [
        "fe",
        "ast"
      ],
      [
        "it",
        "ing"
      ],
      [
        "t",
        "u"
      ],
      [
        "s",
        "ne"
      ],
      [
        "wal",
        "k"
      ],
      [
        "m",
        "ur"
      ],
      [
        "pear",
        "l"
      ],
      [
        "el",
        "se"
      ],
      [
        "in",
        "ing"
      ],
      [
        "sup",
        "er"
      ],
      [
        "picture",
        "s"
      ],
      [
        "pan",
        "ic"
      ],
      [
        "s",
        "ank"
      ],
      [
        "m",
        "akes"
      ],
      [
        "sc",
        "ary"
      ],
      [
        "loud",
        "ly"
      ],
      [
        "an",
        "gry"
      ],
      [
        "d",
        "im"
      ],
      [
        "pour",
        "ed"
      ],
      [
        "am",
        "ond"
      ],
      [
        "di",
        "amond"
      ],
      [
        "o",
        "b"
      ],
      [
        "fluff",
        "y"
      ],
      [
        "b",
        "i"
      ],
      [
        "challen",
        "ges"
      ],
      [
        "sp",
        "un"
      ],
      [
        "v",
        "ines"
      ],
      [
        "s",
        "le"
      ],
      [
        "l",
        "ate"
      ],
      [
        "betray",
        "al"
      ],
      [
        "ri",
        "de"
      ],
      [
        "b",
        "ad"
      ],
      [
        "s",
        "ight"
      ],
      [
        "f",
        "aster"
      ],
      [
        "mo",
        "m"
      ],
      [
        "et",
        "y"
      ],
      [
        "creati",
        "vity"
      ],
      [
        "lanter",
        "n"
      ],
      [
        "fam",
        "i"
      ],
      [
        "po",
        "ss"
      ],
      [
        "or",
        "n"
      ],
      [
        "h",
        "aving"
      ],
      [
        "hu",
        "ge"
      ],
      [
        "jum",
        "p"
      ],
      [
        "d",
        "irt"
      ],
      [
        "remain",
        "ed"
      ],
      [
        "a",
        "we"
      ],
      [
        "so",
        "ci"
      ],
      [
        "m",
        "ess"
      ],
      [
        "stay",
        "ed"
      ],
      [
        "pre",
        "sence"
      ],
      [
        "bran",
        "ch"
      ],
      [
        "wr",
        "apped"
      ],
      [
        "ch",
        "uck"
      ],
      [
        "trick",
        "s"
      ],
      [
        "cre",
        "aked"
      ],
      [
        "o",
        "ak"
      ],
      [
        "loo",
        "med"
      ],
      [
        "soci",
        "ety"
      ],
      [
        "th",
        "s"
      ],
      [
        "summ",
        "er"
      ],
      [
        "ga",
        "zed"
      ],
      [
        "h",
        "all"
      ],
      [
        "listen",
        "ing"
      ],
      [
        "mis",
        "sing"
      ],
      [
        "lear",
        "ning"
      ],
      [
        "draw",
        "ing"
      ],
      [
        "z",
        "o"
      ],
      [
        "h",
        "air"
      ],
      [
        "poin",
        "ting"
      ],
      [
        "shell",
        "s"
      ],
      [
        "fru",
        "it"
      ],
      [
        "v",
        "ie"
      ],
      [
        "ur",
        "ing"
      ],
      [
        "bat",
        "tle"
      ],
      [
        "swir",
        "ling"
      ],
      [
        "ho",
        "l"
      ],
      [
        "pri",
        "de"
      ],
      [
        "cho",
        "ices"
      ],
      [
        "dre",
        "w"
      ],
      [
        "fa",
        "i"
      ],
      [
        "f",
        "row"
      ],
      [
        "frow",
        "ned"
      ],
      [
        "tradit",
        "ion"
      ],
      [
        "bo",
        "ard"
      ],
      [
        "clear",
        "ing"
      ],
      [
        "app",
        "ing"
      ],
      [
        "hop",
        "ed"
      ],
      [
        "en",
        "cour"
      ],
      [
        "cr",
        "ash"
      ],
      [
        "lo",
        "t"
      ],
      [
        "or",
        "ange"
      ],
      [
        "sh",
        "aking"
      ],
      [
        "cir",
        "cle"
      ],
      [
        "li",
        "ked"
      ],
      [
        "ru",
        "ins"
      ],
      [
        "flo",
        "ating"
      ],
      [
        "ch",
        "ase"
      ],
      [
        "sp",
        "r"
      ],
      [
        "plant",
        "ed"
      ],
      [
        "t",
        "ug"
      ],
      [
        "back",
        "yard"
      ],
      [
        "fin",
        "ish"
      ],
      [
        "w",
        "it"
      ],
      [
        "p",
        "at"
      ],
      [
        "cast",
        "ing"
      ],
      [
        "grin",
        "ned"
      ],
      [
        "flo",
        "or"
      ],
      [
        "d",
        "ed"
      ],
      [
        "ro",
        "t"
      ],
      [
        "pul",
        "ling"
      ],
      [
        "snow",
        "y"
      ],
      [
        "ap",
        "art"
      ],
      [
        "be",
        "ast"
      ],
      [
        "fail",
        "ure"
      ],
      [
        "hop",
        "ped"
      ],
      [
        "reach",
        "ing"
      ],
      [
        "long",
        "ed"
      ],
      [
        "b",
        "as"
      ],
      [
        "cho",
        "se"
      ],
      [
        "gre",
        "ed"
      ],
      [
        "d",
        "uring"
      ],
      [
        "re",
        "li"
      ],
      [
        "p",
        "en"
      ],
      [
        "pre",
        "ss"
      ],
      [
        "swi",
        "m"
      ],
      [
        "bu",
        "shes"
      ],
      [
        "wee",
        "k"
      ],
      [
        "ad",
        "mir"
      ],
      [
        "sp",
        "ell"
      ],
      [
        "pee",
        "ked"
      ],
      [
        "conne",
        "cted"
      ],
      [
        "stre",
        "t"
      ],
      [
        "ir",
        "on"
      ],
      [
        "as",
        "king"
      ],
      [
        "bot",
        "tle"
      ],
      [
        "ste",
        "al"
      ],
      [
        "clu",
        "es"
      ],
      [
        "fad",
        "ing"
      ],
      [
        "emer",
        "ged"
      ],
      [
        "ho",
        "le"
      ],
      [
        "answ",
        "ers"
      ],
      [
        "cont",
        "rol"
      ],
      [
        "do",
        "l"
      ],
      [
        "dol",
        "ph"
      ],
      [
        "cho",
        "ose"
      ],
      [
        "in",
        "t"
      ],
      [
        "twir",
        "led"
      ],
      [
        "diamond",
        "s"
      ],
      [
        "s",
        "on"
      ],
      [
        "chas",
        "ed"
      ],
      [
        "k",
        "no"
      ],
      [
        "vis",
        "ited"
      ],
      [
        "ch",
        "ir"
      ],
      [
        "pup",
        "py"
      ],
      [
        "bi",
        "ke"
      ],
      [
        "symbo",
        "ls"
      ],
      [
        "follow",
        "ing"
      ],
      [
        "lo",
        "se"
      ],
      [
        "th",
        "ief"
      ],
      [
        "ho",
        "od"
      ],
      [
        "who",
        "le"
      ],
      [
        "myster",
        "ious"
      ],
      [
        "e",
        "at"
      ],
      [
        "enjoy",
        "ed"
      ],
      [
        "ro",
        "ots"
      ],
      [
        "sh",
        "own"
      ],
      [
        "atter",
        "ed"
      ],
      [
        "vie",
        "w"
      ],
      [
        "inv",
        "iting"
      ],
      [
        "win",
        "ning"
      ],
      [
        "excited",
        "ly"
      ],
      [
        "we",
        "ak"
      ],
      [
        "al",
        "e"
      ],
      [
        "un",
        "ch"
      ],
      [
        "spl",
        "ashed"
      ],
      [
        "but",
        "ton"
      ],
      [
        "imag",
        "ining"
      ],
      [
        "art",
        "ist"
      ],
      [
        "cre",
        "ep"
      ],
      [
        "u",
        "al"
      ],
      [
        "gi",
        "ven"
      ],
      [
        "flick",
        "er"
      ],
      [
        "see",
        "ing"
      ],
      [
        "fo",
        "ot"
      ],
      [
        "chuck",
        "led"
      ],
      [
        "less",
        "ons"
      ],
      [
        "in",
        "tri"
      ],
      [
        "refle",
        "ction"
      ],
      [
        "in",
        "ked"
      ],
      [
        "draw",
        "ings"
      ],
      [
        "meet",
        "ing"
      ],
      [
        "zo",
        "om"
      ],
      [
        "loud",
        "er"
      ],
      [
        "stro",
        "ke"
      ],
      [
        "pract",
        "iced"
      ],
      [
        "dis",
        "app"
      ],
      [
        "po",
        "se"
      ],
      [
        "we",
        "ed"
      ],
      [
        "un",
        "known"
      ],
      [
        "lo",
        "g"
      ],
      [
        "p",
        "ile"
      ],
      [
        "m",
        "ark"
      ],
      [
        "ic",
        "ked"
      ],
      [
        "d",
        "rop"
      ],
      [
        "co",
        "zy"
      ],
      [
        "h",
        "on"
      ],
      [
        "dri",
        "fted"
      ],
      [
        "o",
        "c"
      ],
      [
        "at",
        "s"
      ],
      [
        "differen",
        "ce"
      ],
      [
        "mar",
        "ket"
      ],
      [
        "d",
        "ig"
      ],
      [
        "tre",
        "mbling"
      ],
      [
        "hun",
        "t"
      ],
      [
        "fin",
        "al"
      ],
      [
        "t",
        "un"
      ],
      [
        "le",
        "an"
      ],
      [
        "ear",
        "s"
      ],
      [
        "bu",
        "z"
      ],
      [
        "pur",
        "pose"
      ],
      [
        "wh",
        "ite"
      ],
      [
        "r",
        "ang"
      ],
      [
        "g",
        "g"
      ],
      [
        "p",
        "ink"
      ],
      [
        "z",
        "ard"
      ],
      [
        "h",
        "um"
      ],
      [
        "thre",
        "e"
      ],
      [
        "fru",
        "its"
      ],
      [
        "ri",
        "val"
      ],
      [
        "pro",
        "ve"
      ],
      [
        "kit",
        "che"
      ],
      [
        "flut",
        "ter"
      ],
      [
        "mix",
        "ed"
      ],
      [
        "des",
        "p"
      ],
      [
        "intri",
        "gued"
      ],
      [
        "kitche",
        "n"
      ],
      [
        "com",
        "p"
      ],
      [
        "cu",
        "sed"
      ],
      [
        "its",
        "elf"
      ],
      [
        "i",
        "z"
      ],
      [
        "ke",
        "ts"
      ],
      [
        "fai",
        "ries"
      ],
      [
        "ne",
        "ck"
      ],
      [
        "s",
        "ib"
      ],
      [
        "sib",
        "ling"
      ],
      [
        "ind",
        "ep"
      ],
      [
        "indep",
        "end"
      ],
      [
        "too",
        "ls"
      ],
      [
        "u",
        "e"
      ],
      [
        "hon",
        "or"
      ],
      [
        "com",
        "m"
      ],
      [
        "c",
        "ru"
      ],
      [
        "your",
        "self"
      ],
      [
        "sa",
        "ge"
      ],
      [
        "b",
        "er"
      ],
      [
        "h",
        "al"
      ],
      [
        "storm",
        "s"
      ],
      [
        "cra",
        "b"
      ],
      [
        "fo",
        "cused"
      ],
      [
        "enjoy",
        "ing"
      ],
      [
        "ur",
        "ed"
      ],
      [
        "want",
        "ing"
      ],
      [
        "ar",
        "p"
      ],
      [
        "turn",
        "s"
      ],
      [
        "p",
        "op"
      ],
      [
        "sun",
        "set"
      ],
      [
        "ac",
        "tion"
      ],
      [
        "new",
        "found"
      ],
      [
        "le",
        "af"
      ],
      [
        "co",
        "in"
      ],
      [
        "fall",
        "ing"
      ],
      [
        "the",
        "s"
      ],
      [
        "c",
        "king"
      ],
      [
        "night",
        "s"
      ],
      [
        "d",
        "au"
      ],
      [
        "dau",
        "ghter"
      ],
      [
        "ra",
        "ised"
      ],
      [
        "lo",
        "vely"
      ],
      [
        "str",
        "uck"
      ],
      [
        "me",
        "adow"
      ],
      [
        "t",
        "rain"
      ],
      [
        "clo",
        "thes"
      ],
      [
        "h",
        "aps"
      ],
      [
        "per",
        "haps"
      ],
      [
        "d",
        "ad"
      ],
      [
        "conf",
        "id"
      ],
      [
        "p",
        "ping"
      ],
      [
        "sle",
        "ep"
      ],
      [
        "s",
        "word"
      ],
      [
        "twink",
        "le"
      ],
      [
        "k",
        "nel"
      ],
      [
        "knel",
        "t"
      ],
      [
        "was",
        "hed"
      ],
      [
        "ple",
        "ase"
      ],
      [
        "carry",
        "ing"
      ],
      [
        "cour",
        "se"
      ],
      [
        "long",
        "ing"
      ],
      [
        "n",
        "ic"
      ],
      [
        "sw",
        "ing"
      ],
      [
        "p",
        "ho"
      ],
      [
        "super",
        "hero"
      ],
      [
        "bl",
        "inked"
      ],
      [
        "top",
        "us"
      ],
      [
        "oc",
        "topus"
      ],
      [
        "s",
        "que"
      ],
      [
        "say",
        "s"
      ],
      [
        "sc",
        "r"
      ],
      [
        "swi",
        "mm"
      ],
      [
        "v",
        "ic"
      ],
      [
        "gif",
        "ts"
      ],
      [
        "un",
        "ic"
      ],
      [
        "stu",
        "d"
      ],
      [
        "prin",
        "cess"
      ],
      [
        "play",
        "ful"
      ],
      [
        "p",
        "age"
      ],
      [
        "ma",
        "id"
      ],
      [
        "admir",
        "ed"
      ],
      [
        "del",
        "ight"
      ],
      [
        "respons",
        "ibility"
      ],
      [
        "happen",
        "ing"
      ],
      [
        "d",
        "ro"
      ],
      [
        "em",
        "p"
      ],
      [
        "am",
        "id"
      ],
      [
        "sh",
        "arp"
      ],
      [
        "planet",
        "s"
      ],
      [
        "pie",
        "ces"
      ],
      [
        "li",
        "ve"
      ],
      [
        "f",
        "loo"
      ],
      [
        "surpr",
        "ises"
      ],
      [
        "in",
        "st"
      ],
      [
        "tun",
        "nel"
      ],
      [
        "sh",
        "ake"
      ],
      [
        "proble",
        "m"
      ],
      [
        "v",
        "ice"
      ],
      [
        "myster",
        "y"
      ],
      [
        "wor",
        "ries"
      ],
      [
        "gr",
        "ay"
      ],
      [
        "mor",
        "row"
      ],
      [
        "to",
        "morrow"
      ],
      [
        "war",
        "ning"
      ],
      [
        "gl",
        "an"
      ],
      [
        "sk",
        "ill"
      ],
      [
        "wo",
        "l"
      ],
      [
        "f",
        "ting"
      ],
      [
        "encour",
        "aged"
      ],
      [
        "lo",
        "sing"
      ],
      [
        "sk",
        "ies"
      ],
      [
        "al",
        "oud"
      ],
      [
        "ran",
        "ce"
      ],
      [
        "ro",
        "ar"
      ],
      [
        "m",
        "in"
      ],
      [
        "pic",
        "nic"
      ],
      [
        "sk",
        "in"
      ],
      [
        "independ",
        "ence"
      ],
      [
        "st",
        "age"
      ],
      [
        "ge",
        "ms"
      ],
      [
        "land",
        "s"
      ],
      [
        "ne",
        "t"
      ],
      [
        "any",
        "more"
      ],
      [
        "mer",
        "maid"
      ],
      [
        "sway",
        "ed"
      ],
      [
        "b",
        "oun"
      ],
      [
        "b",
        "read"
      ],
      [
        "hard",
        "er"
      ],
      [
        "de",
        "p"
      ],
      [
        "ch",
        "ar"
      ],
      [
        "hold",
        "s"
      ],
      [
        "s",
        "so"
      ],
      [
        "rain",
        "y"
      ],
      [
        "blo",
        "sso"
      ],
      [
        "wi",
        "den"
      ],
      [
        "keep",
        "er"
      ],
      [
        "hand",
        "ed"
      ],
      [
        "ling",
        "ered"
      ],
      [
        "wit",
        "ch"
      ],
      [
        "belong",
        "ing"
      ],
      [
        "chir",
        "ped"
      ],
      [
        "h",
        "y"
      ],
      [
        "see",
        "king"
      ],
      [
        "d",
        "le"
      ],
      [
        "d",
        "igg"
      ],
      [
        "guard",
        "ian"
      ],
      [
        "to",
        "night"
      ],
      [
        "bu",
        "sh"
      ],
      [
        "digg",
        "ing"
      ],
      [
        "push",
        "ing"
      ],
      [
        "mid",
        "dle"
      ],
      [
        "glimm",
        "ered"
      ],
      [
        "sm",
        "elled"
      ],
      [
        "not",
        "es"
      ],
      [
        "chas",
        "ing"
      ],
      [
        "f",
        "acing"
      ],
      [
        "lean",
        "ed"
      ],
      [
        "mar",
        "ked"
      ],
      [
        "gr",
        "own"
      ],
      [
        "m",
        "en"
      ],
      [
        "o",
        "th"
      ],
      [
        "bas",
        "ket"
      ],
      [
        "n",
        "ice"
      ],
      [
        "reveal",
        "ed"
      ],
      [
        "wol",
        "f"
      ],
      [
        "s",
        "l"
      ],
      [
        "en",
        "ing"
      ],
      [
        "su",
        "c"
      ],
      [
        "li",
        "ving"
      ],
      [
        "p",
        "s"
      ],
      [
        "tr",
        "ap"
      ],
      [
        "fight",
        "ing"
      ],
      [
        "c",
        "ut"
      ],
      [
        "pet",
        "als"
      ],
      [
        "wor",
        "n"
      ],
      [
        "hun",
        "gry"
      ],
      [
        "ad",
        "m"
      ],
      [
        "bre",
        "a"
      ],
      [
        "hope",
        "ful"
      ],
      [
        "tast",
        "e"
      ],
      [
        "let",
        "ting"
      ],
      [
        "un",
        "cover"
      ],
      [
        "fall",
        "en"
      ],
      [
        "twink",
        "ling"
      ],
      [
        "an",
        "n"
      ],
      [
        "swimm",
        "ing"
      ],
      [
        "rust",
        "y"
      ],
      [
        "cho",
        "col"
      ],
      [
        "hor",
        "iz"
      ],
      [
        "v",
        "irt"
      ],
      [
        "po",
        "cket"
      ],
      [
        "virt",
        "ual"
      ],
      [
        "fe",
        "ared"
      ],
      [
        "swir",
        "l"
      ],
      [
        "know",
        "s"
      ],
      [
        "wi",
        "zard"
      ],
      [
        "f",
        "ountain"
      ],
      [
        "light",
        "ing"
      ],
      [
        "widen",
        "ed"
      ],
      [
        "pro",
        "ject"
      ],
      [
        "ent",
        "rance"
      ],
      [
        "ce",
        "i"
      ],
      [
        "read",
        "ing"
      ],
      [
        "g",
        "ener"
      ],
      [
        "le",
        "st"
      ],
      [
        "ro",
        "de"
      ],
      [
        "horiz",
        "on"
      ],
      [
        "id",
        "es"
      ],
      [
        "c",
        "ross"
      ],
      [
        "c",
        "ing"
      ],
      [
        "sh",
        "iver"
      ],
      [
        "as",
        "ks"
      ],
      [
        "mes",
        "sage"
      ],
      [
        "chocol",
        "ate"
      ],
      [
        "h",
        "arm"
      ],
      [
        "shap",
        "ed"
      ],
      [
        "j",
        "u"
      ],
      [
        "cor",
        "al"
      ],
      [
        "lu",
        "ck"
      ],
      [
        "stret",
        "ched"
      ],
      [
        "y",
        "el"
      ],
      [
        "dolph",
        "in"
      ],
      [
        "i",
        "lor"
      ],
      [
        "se",
        "c"
      ],
      [
        "fail",
        "ed"
      ],
      [
        "sa",
        "ilor"
      ],
      [
        "quest",
        "ions"
      ],
      [
        "up",
        "ted"
      ],
      [
        "celebr",
        "ating"
      ],
      [
        "climb",
        "ing"
      ],
      [
        "app",
        "le"
      ],
      [
        "cr",
        "ack"
      ],
      [
        "co",
        "o"
      ],
      [
        "fl",
        "our"
      ],
      [
        "al",
        "ley"
      ],
      [
        "go",
        "al"
      ],
      [
        "jo",
        "kes"
      ],
      [
        "g",
        "ra"
      ],
      [
        "sou",
        "l"
      ],
      [
        "po",
        "et"
      ],
      [
        "accep",
        "t"
      ],
      [
        "answ",
        "ered"
      ],
      [
        "id",
        "ay"
      ],
      [
        "hol",
        "iday"
      ],
      [
        "vent",
        "ured"
      ],
      [
        "sor",
        "ry"
      ],
      [
        "che",
        "ers"
      ],
      [
        "l",
        "ines"
      ],
      [
        "hal",
        "f"
      ],
      [
        "lo",
        "cked"
      ],
      [
        "ridd",
        "les"
      ],
      [
        "p",
        "i"
      ],
      [
        "clu",
        "e"
      ],
      [
        "cheer",
        "ful"
      ],
      [
        "a",
        "waited"
      ],
      [
        "ri",
        "ches"
      ],
      [
        "co",
        "st"
      ],
      [
        "come",
        "t"
      ],
      [
        "or",
        "b"
      ],
      [
        "d",
        "ing"
      ],
      [
        "d",
        "ar"
      ],
      [
        "h",
        "ar"
      ],
      [
        "gu",
        "ided"
      ],
      [
        "plan",
        "ning"
      ],
      [
        "ho",
        "mes"
      ],
      [
        "echo",
        "es"
      ],
      [
        "de",
        "er"
      ],
      [
        "re",
        "placed"
      ],
      [
        "dep",
        "ths"
      ],
      [
        "pat",
        "i"
      ],
      [
        "bubb",
        "ling"
      ],
      [
        "me",
        "ans"
      ],
      [
        "zoom",
        "ed"
      ],
      [
        "ke",
        "st"
      ],
      [
        "forget",
        "ting"
      ],
      [
        "ca",
        "fe"
      ],
      [
        "eas",
        "y"
      ],
      [
        "ak",
        "er"
      ],
      [
        "ad",
        "y"
      ],
[...]
