{
    "version": "1.0",
    "truncation": null,
    "padding": null,
    "added_tokens": [
      {
        "id": 0,
        "content": "[UNK]",
        "single_word": false,
        "lstrip": false,
        "rstrip": false,
        "normalized": false,
        "special": true
      },
      {
        "id": 1,
        "content": "[EOS]",
        "single_word": false,
        "lstrip": false,
        "rstrip": false,
        "normalized": false,
        "special": true
      }
    ],
    "normalizer": null,
    "pre_tokenizer": {
      "type": "Sequence",
      "pretokenizers": [
        {
          "type": "Punctuation",
          "behavior": "Isolated"
        },
        {
          "type": "Whitespace"
        },
        {
          "type": "Digits",
          "individual_digits": true
        }
      ]
    },
    "post_processor": null,
    "decoder": null,
    "model": {
      "type": "WordPiece",
      "unk_token": "[UNK]",
      "continuing_subword_prefix": "##",
      "max_input_chars_per_word": 100,
      "vocab": {
        "[UNK]": 0,
        "[EOS]": 1,
        "!": 2,
        "\"": 3,
        "&": 4,
        "'": 5,
        "(": 6,
        ")": 7,
        "*": 8,
        "+": 9,
        ",": 10,
        "-": 11,
        ".": 12,
        "/": 13,
        "0": 14,
        "1": 15,
        "2": 16,
        "3": 17,
        "4": 18,
        "5": 19,
        "6": 20,
        "7": 21,
        "8": 22,
        "9": 23,
        ":": 24,
        ";": 25,
        "<": 26,
        "=": 27,
        ">": 28,
        "?": 29,
        "_": 30,
        "`": 31,
        "a": 32,
        "b": 33,
        "c": 34,
        "d": 35,
        "e": 36,
        "f": 37,
        "g": 38,
        "h": 39,
        "i": 40,
        "j": 41,
        "k": 42,
        "l": 43,
        "m": 44,
        "n": 45,
        "o": 46,
        "p": 47,
        "q": 48,
        "r": 49,
        "s": 50,
        "t": 51,
        "u": 52,
        "v": 53,
        "w": 54,
        "x": 55,
        "y": 56,
        "z": 57,
        "##n": 58,
        "##f": 59,
        "##l": 60,
        "##a": 61,
        "##t": 62,
        "##e": 63,
        "##d": 64,
        "##o": 65,
        "##v": 66,
        "##r": 67,
        "##c": 68,
        "##w": 69,
        "##p": 70,
        "##k": 71,
        "##s": 72,
        "##m": 73,
        "##u": 74,
        "##b": 75,
        "##i": 76,
        "##g": 77,
        "##y": 78,
        "##h": 79,
        "##q": 80,
        "##z": 81,
        "##x": 82,
        "##j": 83,
        "##he": 84,
        "the": 85,
        "##ed": 86,
        "##nd": 87,
        "##er": 88,
        "##in": 89,
        "##ou": 90,
        "to": 91,
        "##re": 92,
        "and": 93,
        "##ar": 94,
        "he": 95,
        "##ing": 96,
        "##an": 97,
        "##at": 98,
        "##as": 99,
        "she": 100,
        "##el": 101,
        "they": 102,
        "th": 103,
        "sa": 104,
        "##it": 105,
        "##ll": 106,
        "##id": 107,
        "in": 108,
        "##or": 109,
        "##is": 110,
        "##es": 111,
        "##en": 112,
        "##ow": 113,
        "it": 114,
        "##et": 115,
        "##gh": 116,
        "was": 117,
        "##ay": 118,
        "##le": 119,
        "##on": 120,
        "st": 121,
        "##ut": 122,
        "##ir": 123,
        "##ght": 124,
        "##ri": 125,
        "##ld": 126,
        "her": 127,
        "##am": 128,
        "##oo": 129,
        "##ad": 130,
        "sh": 131,
        "##im": 132,
        "on": 133,
        "##ked": 134,
        "be": 135,
        "##om": 136,
        "##ac": 137,
        "of": 138,
        "said": 139,
        "##ic": 140,
        "##ly": 141,
        "but": 142,
        "li": 143,
        "that": 144,
        "##st": 145,
        "fel": 146,
        "wit": 147,
        "##her": 148,
        "with": 149,
        "felt": 150,
        "le": 151,
        "##al": 152,
        "you": 153,
        "##ted": 154,
        "##ound": 155,
        "##ver": 156,
        "##ot": 157,
        "as": 158,
        "##pp": 159,
        "wh": 160,
        "##ve": 161,
        "##end": 162,
        "re": 163,
        "sm": 164,
        "##ag": 165,
        "fri": 166,
        "friend": 167,
        "##ke": 168,
        "##all": 169,
        "ha": 170,
        "day": 171,
        "##ia": 172,
        "lo": 173,
        "##ill": 174,
        "pl": 175,
        "##un": 176,
        "##ould": 177,
        "##ure": 178,
        "sp": 179,
        "##led": 180,
        "##oy": 181,
        "his": 182,
        "##ig": 183,
        "##ved": 184,
        "##ind": 185,
        "one": 186,
        "al": 187,
        "##hed": 188,
        "mia": 189,
        "##ain": 190,
        "tre": 191,
        "wan": 192,
        "for": 193,
        "loo": 194,
        "found": 195,
        "##ec": 196,
        "##uel": 197,
        "can": 198,
        "##ur": 199,
        "##amed": 200,
        "##low": 201,
        "##lp": 202,
        "cl": 203,
        "la": 204,
        "star": 205,
        "##ent": 206,
        "help": 207,
        "had": 208,
        "named": 209,
        "whe": 210,
        "ever": 211,
        "##ned": 212,
        "friends": 213,
        "##ard": 214,
        "##one": 215,
        "##ought": 216,
        "is": 217,
        "##get": 218,
        "big": 219,
        "so": 220,
        "smi": 221,
        "##gether": 222,
        "together": 223,
        "happ": 224,
        "##ered": 225,
        "sam": 226,
        "##lex": 227,
        "alex": 228,
        "##irl": 229,
        "ne": 230,
        "wanted": 231,
        "##ore": 232,
        "thought": 233,
        "samuel": 234,
        "##fu": 235,
        "every": 236,
        "wor": 237,
        "##ee": 238,
        "girl": 239,
        "an": 240,
        "##ark": 241,
        "##os": 242,
        "ma": 243,
        "##ust": 244,
        "saw": 245,
        "kim": 246,
        "##out": 247,
        "their": 248,
        "co": 249,
        "ab": 250,
        "br": 251,
        "##ome": 252,
        "##ter": 253,
        "leo": 254,
        "##tle": 255,
        "##ful": 256,
        "when": 257,
        "kn": 258,
        "play": 259,
        "not": 260,
        "##right": 261,
        "bright": 262,
        "could": 263,
        "lear": 264,
        "there": 265,
        "looked": 266,
        "do": 267,
        "##ide": 268,
        "ex": 269,
        "fe": 270,
        "##anc": 271,
        "what": 272,
        "about": 273,
        "##oud": 274,
        "boy": 275,
        "at": 276,
        "lily": 277,
        "lau": 278,
        "loved": 279,
        "##ared": 280,
        "smiled": 281,
        "##art": 282,
        "##ere": 283,
        "were": 284,
        "##ight": 285,
        "learned": 286,
        "flow": 287,
        "this": 288,
        "##ave": 289,
        "happy": 290,
        "up": 291,
        "flower": 292,
        "##ade": 293,
        "too": 294,
        "pr": 295,
        "##est": 296,
        "danc": 297,
        "##ice": 298,
        "ro": 299,
        "##ck": 300,
        "stor": 301,
        "##ack": 302,
        "mag": 303,
        "magic": 304,
        "gr": 305,
        "made": 306,
        "we": 307,
        "##reat": 308,
        "all": 309,
        "him": 310,
        "like": 311,
        "##ong": 312,
        "##lor": 313,
        "fr": 314,
        "find": 315,
        "asked": 316,
        "them": 317,
        "##dd": 318,
        "##ies": 319,
        "ar": 320,
        "dre": 321,
        "##us": 322,
        "##ame": 323,
        "sun": 324,
        "feel": 325,
        "lit": 326,
        "##em": 327,
        "##asure": 328,
        "treasure": 329,
        "tr": 330,
        "##king": 331,
        "go": 332,
        "##way": 333,
        "back": 334,
        "##op": 335,
        "fun": 336,
        "##hing": 337,
        "color": 338,
        "##ther": 339,
        "sk": 340,
        "other": 341,
        "little": 342,
        "##ang": 343,
        "would": 344,
        "##side": 345,
        "ag": 346,
        "shin": 347,
        "dec": 348,
        "joy": 349,
        "sad": 350,
        "exc": 351,
        "small": 352,
        "just": 353,
        "ch": 354,
        "su": 355,
        "heart": 356,
        "no": 357,
        "sc": 358,
        "then": 359,
        "##ided": 360,
        "##ook": 361,
        "##ace": 362,
        "che": 363,
        "##ited": 364,
        "decided": 365,
        "##ood": 366,
        "me": 367,
        "wis": 368,
        "sky": 369,
        "will": 370,
        "from": 371,
        "alice": 372,
        "ad": 373,
        "##are": 374,
        "wat": 375,
        "se": 376,
        "dream": 377,
        "are": 378,
        "stars": 379,
        "rem": 380,
        "##vent": 381,
        "flowers": 382,
        "let": 383,
        "everyone": 384,
        "str": 385,
        "##ui": 386,
        "advent": 387,
        "than": 388,
        "##ip": 389,
        "##ant": 390,
        "adventure": 391,
        "##to": 392,
        "out": 393,
        "##ghed": 394,
        "laughed": 395,
        "##ened": 396,
        "see": 397,
        "##ous": 398,
        "tim": 399,
        "sn": 400,
        "##nder": 401,
        "##ew": 402,
        "##eep": 403,
        "##ach": 404,
        "inside": 405,
        "##age": 406,
        "spark": 407,
        "##and": 408,
        "if": 409,
        "make": 410,
        "##ess": 411,
        "pain": 412,
        "##wn": 413,
        "around": 414,
        "##emb": 415,
        "into": 416,
        "##ose": 417,
        "##ings": 418,
        "tree": 419,
        "dr": 420,
        "rit": 421,
        "rita": 422,
        "rememb": 423,
        "tur": 424,
        "##ch": 425,
        "##ven": 426,
        "home": 427,
        "gard": 428,
        "garden": 429,
        "##aut": 430,
        "time": 431,
        "sw": 432,
        "##omet": 433,
        "am": 434,
        "feeling": 435,
        "took": 436,
        "fl": 437,
        "cloud": 438,
        "again": 439,
        "wo": 440,
        "beaut": 441,
        "##own": 442,
        "##ft": 443,
        "somet": 444,
        "gi": 445,
        "##mp": 446,
        "creat": 447,
        "##alked": 448,
        "##ny": 449,
        "knew": 450,
        "op": 451,
        "##av": 452,
        "##zed": 453,
        "real": 454,
        "##pped": 455,
        "even": 456,
        "excited": 457,
        "fo": 458,
        "cr": 459,
        "bir": 460,
        "light": 461,
        "vill": 462,
        "##lew": 463,
        "rock": 464,
        "bird": 465,
        "##ce": 466,
        "show": 467,
        "sudd": 468,
        "sudden": 469,
        "suddenly": 470,
        "danced": 471,
        "land": 472,
        "ey": 473,
        "##ity": 474,
        "brave": 475,
        "world": 476,
        "beauti": 477,
        "##pl": 478,
        "pet": 479,
        "eyes": 480,
        "##man": 481,
        "stories": 482,
        "know": 483,
        "who": 484,
        "beautiful": 485,
        "##sed": 486,
        "lost": 487,
        "old": 488,
        "ta": 489,
        "more": 490,
        "beg": 491,
        "night": 492,
        "shiny": 493,
        "my": 494,
        "new": 495,
        "##ough": 496,
        "have": 497,
        "walked": 498,
        "ran": 499,
        "map": 500,
        "bl": 501,
        "##eci": 502,
        "how": 503,
        "began": 504,
        "snow": 505,
        "##ue": 506,
        "fore": 507,
        "speci": 508,
        "special": 509,
        "##hip": 510,
        "##ey": 511,
        "glow": 512,
        "village": 513,
        "best": 514,
        "peter": 515,
        "flew": 516,
        "fill": 517,
        "##ull": 518,
        "##oom": 519,
        "##ched": 520,
        "did": 521,
        "cheered": 522,
        "##ange": 523,
        "want": 524,
        "town": 525,
        "##outed": 526,
        "shouted": 527,
        "af": 528,
        "mar": 529,
        "##ways": 530,
        "played": 531,
        "came": 532,
        "always": 533,
        "read": 534,
        "remembered": 535,
        "fly": 536,
        "##bb": 537,
        "dark": 538,
        "pic": 539,
        "each": 540,
        "jose": 541,
        "##ist": 542,
        "##ried": 543,
        "proud": 544,
        "down": 545,
        "pe": 546,
        "shared": 547,
        "bec": 548,
        "##il": 549,
        "rain": 550,
        "em": 551,
        "##ised": 552,
        "door": 553,
        "##ink": 554,
        "city": 555,
        "##oin": 556,
        "##ast": 557,
        "reali": 558,
        "book": 559,
        "maria": 560,
        "colors": 561,
        "filled": 562,
        "##ite": 563,
        "thr": 564,
        "##ell": 565,
        "wa": 566,
        "forest": 567,
        "##manuel": 568,
        "emmanuel": 569,
        "tw": 570,
        "scared": 571,
        "under": 572,
        "plan": 573,
        "share": 574,
        "##ish": 575,
        "your": 576,
        "by": 577,
        "##ather": 578,
        "bo": 579,
        "war": 580,
        "##aring": 581,
        "something": 582,
        "look": 583,
        "##idd": 584,
        "love": 585,
        "need": 586,
        "hard": 587,
        "paint": 588,
        "through": 589,
        "len": 590,
        "realized": 591,
        "mo": 592,
        "lena": 593,
        "colorful": 594,
        "after": 595,
        "##ump": 596,
        "lived": 597,
        "told": 598,
        "man": 599,
        "fin": 600,
        "opened": 601,
        "warm": 602,
        "dance": 603,
        "where": 604,
        "bui": 605,
        "kind": 606,
        "being": 607,
        "tall": 608,
        "away": 609,
        "##sel": 610,
        "soft": 611,
        "clos": 612,
        "##imb": 613,
        "climb": 614,
        "dreams": 615,
        "others": 616,
        "wind": 617,
        "stone": 618,
        "trees": 619,
        "deep": 620,
        "##ople": 621,
        "magical": 622,
        "##ret": 623,
        "##agon": 624,
        "##ers": 625,
        "##dded": 626,
        "dragon": 627,
        "way": 628,
        "##ling": 629,
        "##our": 630,
        "knowing": 631,
        "##llow": 632,
        "##se": 633,
        "people": 634,
        "follow": 635,
        "bot": 636,
        "##ate": 637,
        "##self": 638,
        "sur": 639,
        "story": 640,
        "soon": 641,
        "fa": 642,
        "##ff": 643,
        "cave": 644,
        "strong": 645,
        "sparkled": 646,
        "##abb": 647,
        "ali": 648,
        "##nt": 649,
        "started": 650,
        "##ached": 651,
        "its": 652,
        "giant": 653,
        "any": 654,
        "good": 655,
        "things": 656,
        "##ile": 657,
        "##ion": 658,
        "place": 659,
        "fish": 660,
        "prom": 661,
        "sunny": 662,
        "sharing": 663,
        "heard": 664,
        "##igh": 665,
        "jump": 666,
        "friendship": 667,
        "over": 668,
        "te": 669,
        "full": 670,
        "ama": 671,
        "call": 672,
        "qui": 673,
        "water": 674,
        "quiet": 675,
        "rob": 676,
        "##ely": 677,
        "##als": 678,
        "cu": 679,
        "join": 680,
        "##idden": 681,
        "hidden": 682,
        "reached": 683,
        "bel": 684,
        "strange": 685,
        "bet": 686,
        "##ally": 687,
        "mom": 688,
        "key": 689,
        "nodded": 690,
        "##pr": 691,
        "come": 692,
        "##ie": 693,
        "list": 694,
        "thank": 695,
        "robot": 696,
        "ho": 697,
        "whis": 698,
        "expl": 699,
        "surpr": 700,
        "##ree": 701,
        "hop": 702,
        "##ily": 703,
        "must": 704,
        "promised": 705,
        "gre": 706,
        "keep": 707,
        "##aces": 708,
        "app": 709,
        "clouds": 710,
        "##ap": 711,
        "some": 712,
        "##ting": 713,
        "fair": 714,
        "showed": 715,
        "ball": 716,
        "##les": 717,
        "##ick": 718,
        "now": 719,
        "while": 720,
        "##ble": 721,
        "tin": 722,
        "##ep": 723,
        "##br": 724,
        "tiny": 725,
        "##ug": 726,
        "##ass": 727,
        "both": 728,
        "##bow": 729,
        "rainbow": 730,
        "##adow": 731,
        "became": 732,
        "curi": 733,
        "##ness": 734,
        "worked": 735,
        "set": 736,
        "laugh": 737,
        "fi": 738,
        "turned": 739,
        "called": 740,
        "part": 741,
        "##fe": 742,
        "##xt": 743,
        "high": 744,
        "next": 745,
        "##ery": 746,
        "park": 747,
        "better": 748,
        "##aw": 749,
        "creature": 750,
        "take": 751,
        "##ning": 752,
        "alien": 753,
        "hand": 754,
        "whisp": 755,
        "##iver": 756,
        "rabb": 757,
        "rabbit": 758,
        "ret": 759,
        "retur": 760,
        "build": 761,
        "looking": 762,
        "sing": 763,
        "toy": 764,
        "care": 765,
        "##de": 766,
        "met": 767,
        "yes": 768,
        "wish": 769,
        "##ne": 770,
        "box": 771,
        "climbed": 772,
        "##iced": 773,
        "anim": 774,
        "many": 775,
        "##ry": 776,
        "very": 777,
        "smile": 778,
        "inv": 779,
        "sec": 780,
        "butter": 781,
        "gather": 782,
        "adventures": 783,
        "animals": 784,
        "##ush": 785,
        "en": 786,
        "butterf": 787,
        "##ghter": 788,
        "helped": 789,
        "explore": 790,
        "laughter": 791,
        "grow": 792,
        "off": 793,
        "curious": 794,
        "painted": 795,
        "##hes": 796,
        "secret": 797,
        "went": 798,
        "ow": 799,
        "di": 800,
        "owl": 801,
        "pat": 802,
        "wonder": 803,
        "con": 804,
        "##ied": 805,
        "try": 806,
        "cat": 807,
        "turtle": 808,
        "sear": 809,
        "##ise": 810,
        "anne": 811,
        "##ake": 812,
        "tell": 813,
        "##ouse": 814,
        "##thing": 815,
        "sat": 816,
        "##aves": 817,
        "fam": 818,
        "air": 819,
        "breat": 820,
        "sang": 821,
        "jumped": 822,
        "gold": 823,
        "##ving": 824,
        "##ak": 825,
        "held": 826,
        "##so": 827,
        "##other": 828,
        "##be": 829,
        "breath": 830,
        "finally": 831,
        "also": 832,
        "##eared": 833,
        "cook": 834,
        "great": 835,
        "##ndered": 836,
        "lu": 837,
        "din": 838,
        "fairy": 839,
        "river": 840,
        "wondered": 841,
        "repl": 842,
        "moment": 843,
        "cand": 844,
        "us": 845,
        "helping": 846,
        "bring": 847,
        "##aur": 848,
        "##oice": 849,
        "followed": 850,
        "picked": 851,
        "king": 852,
        "##osaur": 853,
        "funny": 854,
        "flying": 855,
        "ready": 856,
        "may": 857,
        "song": 858,
        "ide": 859,
        "replied": 860,
        "storm": 861,
        "playing": 862,
        "##eet": 863,
        "room": 864,
        "sweet": 865,
        "ste": 866,
        "waved": 867,
        "je": 868,
        "family": 869,
        "com": 870,
        "##igg": 871,
        "wr": 872,
        "shadow": 873,
        "kid": 874,
        "##co": 875,
        "wise": 876,
        "dinosaur": 877,
        "##ated": 878,
        "##reed": 879,
        "candy": 880,
        "car": 881,
        "whispered": 882,
        "path": 883,
        "jean": 884,
        "##ool": 885,
        "listened": 886,
        "work": 887,
        "draw": 888,
        "luis": 889,
        "appeared": 890,
        "watched": 891,
        "hope": 892,
        "##zing": 893,
        "flo": 894,
        "gathered": 895,
        "##by": 896,
        "alone": 897,
        "why": 898,
        "got": 899,
        "long": 900,
        "voice": 901,
        "game": 902,
        "laughing": 903,
        "maybe": 904,
        "kids": 905,
        "##aced": 906,
        "##land": 907,
        "fox": 908,
        "noticed": 909,
        "mus": 910,
        "open": 911,
        "##ect": 912,
        "agreed": 913,
        "im": 914,
        "ground": 915,
        "##imes": 916,
        "sometimes": 917,
        "imag": 918,
        "music": 919,
        "sound": 920,
        "##ount": 921,
        "imagin": 922,
        "win": 923,
        "cle": 924,
        "##astle": 925,
        "##um": 926,
        "##iness": 927,
        "pir": 928,
        "glowing": 929,
        "get": 930,
        "##here": 931,
        "true": 932,
        "own": 933,
        "beh": 934,
        "behind": 935,
        "moon": 936,
        "free": 937,
        "blue": 938,
        "happiness": 939,
        "remember": 940,
        "still": 941,
        "team": 942,
        "twink": 943,
        "making": 944,
        "cry": 945,
        "kindness": 946,
        "friendly": 947,
        "kite": 948,
        "##where": 949,
        "##th": 950,
        "##ames": 951,
        "sq": 952,
        "loud": 953,
        "gigg": 954,
        "outside": 955,
        "wished": 956,
        "castle": 957,
        "returned": 958,
        "##ffer": 959,
        "belie": 960,
        "fast": 961,
        "never": 962,
        "dis": 963,
        "##ort": 964,
        "tal": 965,
        "tow": 966,
        "##ountain": 967,
        "games": 968,
        "our": 969,
        "differ": 970,
        "fir": 971,
        "stepped": 972,
        "##ock": 973,
        "tri": 974,
        "##ary": 975,
        "##apped": 976,
        "grew": 977,
        "art": 978,
        "##ge": 979,
        "glowed": 980,
        "planet": 981,
        "thanked": 982,
        "spaces": 983,
        "shining": 984,
        "here": 985,
        "worried": 986,
        "first": 987,
        "##ild": 988,
        "spaceship": 989,
        "far": 990,
        "##vered": 991,
        "##ped": 992,
        "landed": 993,
        "end": 994,
        "##oon": 995,
        "pu": 996,
        "fell": 997,
        "amazing": 998,
        "##ible": 999,
        "exp": 1000,
        "##ds": 1001,
        "hill": 1002,
        "##ost": 1003,
        "searched": 1004,
        "should": 1005,
        "mis": 1006,
        "brighter": 1007,
        "once": 1008,
        "##dom": 1009,
        "mu": 1010,
        "bus": 1011,
        "closed": 1012,
        "##ear": 1013,
        "plant": 1014,
        "seed": 1015,
        "idea": 1016,
        "butterfly": 1017,
        "squ": 1018,
        "##ture": 1019,
        "think": 1020,
        "cookies": 1021,
        "leaves": 1022,
        "lead": 1023,
        "##aus": 1024,
        "amazed": 1025,
        "bear": 1026,
        "shell": 1027,
        "island": 1028,
        "create": 1029,
        "swam": 1030,
        "gl": 1031,
        "space": 1032,
        "herself": 1033,
        "sit": 1034,
        "ac": 1035,
        "##lt": 1036,
        "wait": 1037,
        "slow": 1038,
        "child": 1039,
        "pull": 1040,
        "vis": 1041,
        "kingdom": 1042,
        "sparkling": 1043,
        "put": 1044,
        "mountain": 1045,
        "picture": 1046,
        "chest": 1047,
        "cour": 1048,
        "##iv": 1049,
        "##uck": 1050,
        "tight": 1051,
        "sea": 1052,
        "dancing": 1053,
        "qu": 1054,
        "used": 1055,
        "hug": 1056,
        "##kes": 1057,
        "gent": 1058,
        "##act": 1059,
        "##ele": 1060,
        "cre": 1061,
        "rocket": 1062,
        "imp": 1063,
        "##ash": 1064,
        "trust": 1065,
        "say": 1066,
        "##opped": 1067,
        "explor": 1068,
        "life": 1069,
        "##ished": 1070,
        "un": 1071,
        "lon": 1072,
        "##uff": 1073,
        "creatures": 1074,
        "much": 1075,
        "wow": 1076,
        "##ause": 1077,
        "or": 1078,
        "tried": 1079,
        "cele": 1080,
        "celebr": 1081,
        "excit": 1082,
        "led": 1083,
        "change": 1084,
        "himself": 1085,
        "bigg": 1086,
        "house": 1087,
        "lonely": 1088,
        "surprised": 1089,
        "don": 1090,
        "shine": 1091,
        "##inking": 1092,
        "safe": 1093,
        "goodby": 1094,
        "hands": 1095,
        "goodbye": 1096,
        "dreamed": 1097,
        "everything": 1098,
        "##ren": 1099,
        "hold": 1100,
        "cryst": 1101,
        "##ation": 1102,
        "because": 1103,
        "##ged": 1104,
        "##avor": 1105,
        "pow": 1106,
        "party": 1107,
        "run": 1108,
        "near": 1109,
        "oh": 1110,
        "thinking": 1111,
        "##ept": 1112,
        "fluff": 1113,
        "everywhere": 1114,
        "gave": 1115,
        "brought": 1116,
        "knight": 1117,
        "hero": 1118,
        "##lly": 1119,
        "closer": 1120,
        "bloom": 1121,
        "##ence": 1122,
        "##ons": 1123,
        "kept": 1124,
        "##illy": 1125,
        "different": 1126,
        "mon": 1127,
        "softly": 1128,
        "birds": 1129,
        "toys": 1130,
        "import": 1131,
        "##rel": 1132,
        "##ement": 1133,
        "##assed": 1134,
        "favor": 1135,
        "##fully": 1136,
        "squir": 1137,
        "days": 1138,
        "feather": 1139,
        "##ond": 1140,
        "squirrel": 1141,
        "favorite": 1142,
        "##ching": 1143,
        "bu": 1144,
        "face": 1145,
        "food": 1146,
        "ship": 1147,
        "finished": 1148,
        "##med": 1149,
        "pract": 1150,
        "tou": 1151,
        "fluffy": 1152,
        "important": 1153,
        "power": 1154,
        "mean": 1155,
        "wood": 1156,
        "needed": 1157,
        "##ine": 1158,
        "invited": 1159,
        "trying": 1160,
        "##ired": 1161,
        "fall": 1162,
        "hat": 1163,
        "pirate": 1164,
        "inst": 1165,
        "##og": 1166,
        "wings": 1167,
        "give": 1168,
        "##oup": 1169,
        "built": 1170,
        "##light": 1171,
        "slowly": 1172,
        "watch": 1173,
        "gu": 1174,
        "gh": 1175,
        "ghost": 1176,
        "silly": 1177,
        "dog": 1178,
        "green": 1179,
        "##res": 1180,
        "top": 1181,
        "##orn": 1182,
        "##ushed": 1183,
        "golden": 1184,
        "surprise": 1185,
        "floated": 1186,
        "grass": 1187,
        "words": 1188,
        "passed": 1189,
        "wall": 1190,
        "excitement": 1191,
        "##ppy": 1192,
        "trick": 1193,
        "##ove": 1194,
        "busy": 1195,
        "wide": 1196,
        "##acked": 1197,
        "##llo": 1198,
        "coin": 1199,
        "hello": 1200,
        "race": 1201,
        "crystal": 1202,
        "grand": 1203,
        "##joy": 1204,
        "##ty": 1205,
        "##ze": 1206,
        "seen": 1207,
        "joined": 1208,
        "##ead": 1209,
        "hearts": 1210,
        "stay": 1211,
        "##ix": 1212,
        "cried": 1213,
        "disco": 1214,
        "instead": 1215,
        "##ster": 1216,
        "dust": 1217,
        "gas": 1218,
        "wonderful": 1219,
        "##imm": 1220,
        "poin": 1221,
        "##lies": 1222,
        "sand": 1223,
        "courage": 1224,
        "sch": 1225,
        "##ourn": 1226,
        "shone": 1227,
        "fiel": 1228,
        "stopped": 1229,
        "kit": 1230,
        "spr": 1231,
        "painting": 1232,
        "##oke": 1233,
        "enjoy": 1234,
        "imagined": 1235,
        "treasures": 1236,
        "##la": 1237,
        "school": 1238,
        "use": 1239,
        "stood": 1240,
        "hon": 1241,
        "gasped": 1242,
        "##ves": 1243,
        "##imed": 1244,
        "##irr": 1245,
        "turn": 1246,
        "cont": 1247,
        "snowman": 1248,
        "singing": 1249,
        "sitting": 1250,
        "anything": 1251,
        "giggled": 1252,
        "close": 1253,
        "bef": 1254,
        "boat": 1255,
        "underst": 1256,
        "before": 1257,
        "didn": 1258,
        "wel": 1259,
        "welc": 1260,
        "excla": 1261,
        "journ": 1262,
        "pret": 1263,
        "red": 1264,
        "exclaimed": 1265,
        "journey": 1266,
        "honest": 1267,
        "##ones": 1268,
        "carefully": 1269,
        "rocks": 1270,
        "##ten": 1271,
        "mix": 1272,
        "quick": 1273,
        "ok": 1274,
        "okay": 1275,
        "fear": 1276,
        "group": 1277,
        "year": 1278,
        "visit": 1279,
        "stones": 1280,
        "oce": 1281,
        "ocean": 1282,
        "right": 1283,
        "##ase": 1284,
        "stuck": 1285,
        "songs": 1286,
        "##gg": 1287,
        "lights": 1288,
        "##wor": 1289,
        "two": 1290,
        "##per": 1291,
        "tower": 1292,
        "listen": 1293,
        "above": 1294,
        "woke": 1295,
        "##work": 1296,
        "invis": 1297,
        "##cked": 1298,
        "spl": 1299,
        "butterflies": 1300,
        "balloon": 1301,
        "return": 1302,
        "##vous": 1303,
        "##oss": 1304,
        "spir": 1305,
        "children": 1306,
        "mirr": 1307,
        "mirror": 1308,
        "shap": 1309,
        "pi": 1310,
        "spirit": 1311,
        "smiling": 1312,
        "going": 1313,
        "might": 1314,
        "wrong": 1315,
        "note": 1316,
        "woods": 1317,
        "having": 1318,
        "learn": 1319,
        "snack": 1320,
        "invisible": 1321,
        "ner": 1322,
        "clapped": 1323,
        "nervous": 1324,
        "packed": 1325,
        "sl": 1326,
        "roll": 1327,
        "covered": 1328,
        "unt": 1329,
        "hugged": 1330,
        "##aid": 1331,
        "talked": 1332,
        "##ival": 1333,
        "cake": 1334,
        "pulled": 1335,
        "prin": 1336,
        "happen": 1337,
        "twinkled": 1338,
        "mat": 1339,
        "spot": 1340,
        "puppy": 1341,
        "seeds": 1342,
        "left": 1343,
        "##els": 1344,
        "remind": 1345,
        "##iddle": 1346,
        "att": 1347,
        "believe": 1348,
        "mor": 1349,
        "wishes": 1350,
        "fest": 1351,
        "frog": 1352,
        "##aked": 1353,
        "grandm": 1354,
        "cool": 1355,
        "##ab": 1356,
        "festival": 1357,
        "shadows": 1358,
        "super": 1359,
        "upon": 1360,
        "zoom": 1361,
        "someone": 1362,
        "butt": 1363,
        "raced": 1364,
        "until": 1365,
        "clever": 1366,
        "waiting": 1367,
        "hig": 1368,
        "heav": 1369,
        "##zy": 1370,
        "without": 1371,
        "##bo": 1372,
        "another": 1373,
        "stre": 1374,
        "libr": 1375,
        "belong": 1376,
        "sig": 1377,
        "fix": 1378,
        "##read": 1379,
        "gift": 1380,
        "hur": 1381,
        "scary": 1382,
        "wal": 1383,
        "##ance": 1384,
        "happily": 1385,
        "dusty": 1386,
        "##irled": 1387,
        "flash": 1388,
        "##yard": 1389,
        "hear": 1390,
        "heavy": 1391,
        "ice": 1392,
        "blew": 1393,
        "makes": 1394,
        "hun": 1395,
        "cheer": 1396,
        "##ken": 1397,
        "snacks": 1398,
        "mem": 1399,
        "memor": 1400,
        "monster": 1401,
        "##ating": 1402,
        "working": 1403,
        "noise": 1404,
        "shook": 1405,
        "gentle": 1406,
        "places": 1407,
        "backyard": 1408,
        "pointed": 1409,
        "##round": 1410,
        "hid": 1411,
        "##ates": 1412,
        "forg": 1413,
        "side": 1414,
        "##iled": 1415,
        "library": 1416,
        "quickly": 1417,
        "biggest": 1418,
        "brightly": 1419,
        "drew": 1420,
        "morning": 1421,
        "catch": 1422,
        "cold": 1423,
        "closely": 1424,
        "attic": 1425,
        "##cer": 1426,
        "missed": 1427,
        "##elled": 1428,
        "##ught": 1429,
        "teamwork": 1430,
        "res": 1431,
        "head": 1432,
        "miss": 1433,
        "touched": 1434,
        "welcome": 1435,
        "per": 1436,
        "villag": 1437,
        "meadow": 1438,
        "waves": 1439,
        "##ms": 1440,
        "snowy": 1441,
        "soc": 1442,
        "higher": 1443,
        "villagers": 1444,
        "only": 1445,
        "has": 1446,
        "##sp": 1447,
        "gem": 1448,
        "##ct": 1449,
        "dreaming": 1450,
        "arri": 1451,
        "beach": 1452,
        "bi": 1453,
        "superher": 1454,
        "superhero": 1455,
        "books": 1456,
        "tightly": 1457,
        "sounds": 1458,
        "coming": 1459,
        "sadness": 1460,
        "forever": 1461,
        "pictures": 1462,
        "feels": 1463,
        "##ank": 1464,
        "last": 1465,
        "bree": 1466,
        "##ater": 1467,
        "discovered": 1468,
        "forgot": 1469,
        "riddle": 1470,
        "##rot": 1471,
        "sho": 1472,
        "##oun": 1473,
        "block": 1474,
        "ride": 1475,
        "branc": 1476,
        "arrived": 1477,
        "chang": 1478,
        "field": 1479,
        "ang": 1480,
        "##ued": 1481,
        "brid": 1482,
        "comp": 1483,
        "wave": 1484,
        "breeze": 1485,
        "shy": 1486,
        "pres": 1487,
        "beauty": 1488,
        "practiced": 1489,
        "these": 1490,
        "trav": 1491,
        "sil": 1492,
        "sol": 1493,
        "grabb": 1494,
        "wore": 1495,
        "##app": 1496,
        "past": 1497,
        "stick": 1498,
        "meet": 1499,
        "pushed": 1500,
        "cozy": 1501,
        "travel": 1502,
        "seemed": 1503,
        "##ball": 1504,
        "pond": 1505,
        "cho": 1506,
        "stronger": 1507,
        "##uit": 1508,
        "window": 1509,
        "holding": 1510,
        "grabbed": 1511,
        "mouse": 1512,
        "rivers": 1513,
        "piec": 1514,
        "alive": 1515,
        "crown": 1516,
        "bag": 1517,
        "secrets": 1518,
        "leave": 1519,
        "pro": 1520,
        "coins": 1521,
        "fruit": 1522,
        "bake": 1523,
        "ask": 1524,
        "rolled": 1525,
        "##akes": 1526,
        "button": 1527,
        "pirates": 1528,
        "##ts": 1529,
        "understood": 1530,
        "bridge": 1531,
        "##zz": 1532,
        "perf": 1533,
        "reach": 1534,
        "teac": 1535,
        "gone": 1536,
        "clu": 1537,
        "sailed": 1538,
        "sor": 1539,
        "bike": 1540,
        "step": 1541,
        "ideas": 1542,
        "##cess": 1543,
        "created": 1544,
        "##ashed": 1545,
        "hide": 1546,
        "pap": 1547,
        "stop": 1548,
        "##raid": 1549,
        "afraid": 1550,
        "watching": 1551,
        "most": 1552,
        "twirled": 1553,
        "##ister": 1554,
        "wand": 1555,
        "sister": 1556,
        "gently": 1557,
        "que": 1558,
        "queen": 1559,
        "really": 1560,
        "talk": 1561,
        "smiles": 1562,
        "along": 1563,
        "happened": 1564,
        "fire": 1565,
        "cap": 1566,
        "smell": 1567,
        "deeper": 1568,
        "paper": 1569,
        "hole": 1570,
        "careful": 1571,
        "warmth": 1572,
        "placed": 1573,
        "building": 1574,
        "tired": 1575,
        "##col": 1576,
        "resp": 1577,
        "vall": 1578,
        "valley": 1579,
        "memories": 1580,
        "mountains": 1581,
        "chocol": 1582,
        "confu": 1583,
        "class": 1584,
        "pressed": 1585,
        "chocolate": 1586,
        "jew": 1587,
        "##hin": 1588,
        "##lphin": 1589,
        "dolphin": 1590,
        "changed": 1591,
        "worry": 1592,
        "bloomed": 1593,
        "crew": 1594,
        "sorry": 1595,
        "zoomed": 1596,
        "##ested": 1597,
        "paintbr": 1598,
        "sugg": 1599,
        "rac": 1600,
        "bigger": 1601,
        "teacher": 1602,
        "winter": 1603,
        "soccer": 1604,
        "crow": 1605,
        "##erm": 1606,
        "matter": 1607,
        "confused": 1608,
        "paintbrush": 1609,
        "added": 1610,
        "suggested": 1611,
        "exploring": 1612,
        "##ained": 1613,
        "soared": 1614,
        "##ets": 1615,
        "brush": 1616,
        "aliens": 1617,
        "##aster": 1618,
        "below": 1619,
        "does": 1620,
        "##ises": 1621,
        "moved": 1622,
        "often": 1623,
        "dug": 1624,
        "##ions": 1625,
        "running": 1626,
        "crab": 1627,
        "contin": 1628,
        "grandmother": 1629,
        "liked": 1630,
        "##ng": 1631,
        "talking": 1632,
        "##ud": 1633,
        "##ious": 1634,
        "brother": 1635,
        "silver": 1636,
        "spread": 1637,
        "jewels": 1638,
        "lock": 1639,
        "drawing": 1640,
        "emp": 1641,
        "coll": 1642,
        "respons": 1643,
        "ben": 1644,
        "compass": 1645,
        "swim": 1646,
        "among": 1647,
        "clean": 1648,
        "less": 1649,
        "rush": 1650,
        "planted": 1651,
        "dinosaurs": 1652,
        "##sh": 1653,
        "insp": 1654,
        "cookie": 1655,
        "hurt": 1656,
        "nice": 1657,
        "chir": 1658,
        "young": 1659,
        "empty": 1660,
        "imagination": 1661,
        "perfect": 1662,
        "pen": 1663,
        "looks": 1664,
        "walls": 1665,
        "continued": 1666,
        "says": 1667,
        "disapp": 1668,
        "cann": 1669,
        "hoping": 1670,
        "##vely": 1671,
        "cannot": 1672,
        "clock": 1673,
        "bad": 1674,
        "explored": 1675,
        "##umm": 1676,
        "##ich": 1677,
        "sunlight": 1678,
        "eat": 1679,
        "spoke": 1680,
        "crowd": 1681,
        "##sw": 1682,
        "pretty": 1683,
        "##day": 1684,
        "##eek": 1685,
        "plants": 1686,
        "answ": 1687,
        "finding": 1688,
        "princess": 1689,
        "save": 1690,
        "##ote": 1691,
        "##tern": 1692,
        "dad": 1693,
        "##eak": 1694,
        "##ym": 1695,
        "ent": 1696,
        "smart": 1697,
        "##oken": 1698,
        "solve": 1699,
        "mess": 1700,
        "bee": 1701,
        "twinkle": 1702,
        "##ls": 1703,
        "nearby": 1704,
        "flut": 1705,
        "##allen": 1706,
        "challen": 1707,
        "evening": 1708,
        "fort": 1709,
        "shoo": 1710,
        "fight": 1711,
        "##aving": 1712,
        "toward": 1713,
        "##anted": 1714,
        "wrote": 1715,
        "grate": 1716,
        "explained": 1717,
        "##aking": 1718,
        "later": 1719,
        "grateful": 1720,
        "proble": 1721,
        "faced": 1722,
        "week": 1723,
        "times": 1724,
        "planets": 1725,
        "##ars": 1726,
        "oct": 1727,
        "##opus": 1728,
        "hopped": 1729,
        "octopus": 1730,
        "bat": 1731,
        "bell": 1732,
        "celebrate": 1733,
        "##ected": 1734,
        "##air": 1735,
        "##ground": 1736,
        "pear": 1737,
        "broken": 1738,
        "##fted": 1739,
        "watered": 1740,
        "move": 1741,
        "anyone": 1742,
        "swing": 1743,
        "saved": 1744,
        "comes": 1745,
        "##fl": 1746,
        "pretend": 1747,
        "believed": 1748,
        "##unted": 1749,
        "dist": 1750,
        "##bble": 1751,
        "tail": 1752,
        "piece": 1753,
        "haunted": 1754,
        "tast": 1755,
        "lan": 1756,
        "lantern": 1757,
        "snowfl": 1758,
        "bed": 1759,
        "been": 1760,
        "angry": 1761,
        "par": 1762,
        "arms": 1763,
        "seek": 1764,
        "##hen": 1765,
        "##chen": 1766,
        "kitchen": 1767,
        "low": 1768,
        "enjoyed": 1769,
        "##ience": 1770,
        "##icked": 1771,
        "snowball": 1772,
        "##away": 1773,
        "faces": 1774,
        "faraway": 1775,
        "bun": 1776,
        "sym": 1777,
        "symbo": 1778,
        "##ines": 1779,
        "surprises": 1780,
        "##osity": 1781,
        "bush": 1782,
        "##af": 1783,
        "##ummy": 1784,
        "mur": 1785,
        "fad": 1786,
        "couldn": 1787,
        "sighed": 1788,
        "shimm": 1789,
        "blocks": 1790,
        "##ivity": 1791,
        "##bor": 1792,
        "creativity": 1793,
        "waited": 1794,
        "those": 1795,
        "tricks": 1796,
        "doing": 1797,
        "shooting": 1798,
        "joyful": 1799,
        "spent": 1800,
        "##ounc": 1801,
        "enough": 1802,
        "faster": 1803,
        "##ossed": 1804,
        "crossed": 1805,
        "shoes": 1806,
        "robots": 1807,
        "neigh": 1808,
        "neighbor": 1809,
        "jo": 1810,
        "fairies": 1811,
        "seas": 1812,
        "chas": 1813,
        "drawings": 1814,
        "##tain": 1815,
        "mural": 1816,
        "chirped": 1817,
        "##row": 1818,
        "means": 1819,
        "lad": 1820,
        "mixed": 1821,
        "acr": 1822,
        "search": 1823,
        "##oll": 1824,
        "treat": 1825,
        "across": 1826,
        "##leep": 1827,
        "walking": 1828,
        "##amond": 1829,
        "diamond": 1830,
        "responsible": 1831,
        "rushed": 1832,
        "thri": 1833,
        "thing": 1834,
        "sail": 1835,
        "##aver": 1836,
        "mist": 1837,
        "ple": 1838,
        "spring": 1839,
        "swimm": 1840,
        "longer": 1841,
        "##irt": 1842,
        "hiding": 1843,
        "turns": 1844,
        "##mer": 1845,
        "rode": 1846,
        "pearl": 1847,
        "##arth": 1848,
        "earth": 1849,
        "inspired": 1850,
        "splashed": 1851,
        "anywhere": 1852,
        "##iest": 1853,
        "brings": 1854,
        "##fish": 1855,
        "walk": 1856,
        "lovely": 1857,
        "tun": 1858,
        "blank": 1859,
        "shapes": 1860,
        "yourself": 1861,
        "celebrated": 1862,
        "ench": 1863,
        "pot": 1864,
        "fade": 1865,
        "##ask": 1866,
        "taking": 1867,
        "practice": 1868,
        "leaf": 1869,
        "smelled": 1870,
        "please": 1871,
        "difference": 1872,
        "enchanted": 1873,
        "guard": 1874,
        "##aught": 1875,
        "##iz": 1876,
        "hills": 1877,
        "creating": 1878,
        "fig": 1879,
        "##ans": 1880,
        "won": 1881,
        "using": 1882,
        "##room": 1883,
        "touch": 1884,
        "lifted": 1885,
        "prot": 1886,
        "understand": 1887,
        "##ient": 1888,
        "happening": 1889,
        "sneak": 1890,
        "searching": 1891,
        "del": 1892,
        "##ier": 1893,
        "##lf": 1894,
        "spin": 1895,
        "conn": 1896,
        "spun": 1897,
        "##key": 1898,
        "contest": 1899,
        "##ward": 1900,
        "##cil": 1901,
        "pencil": 1902,
        "figure": 1903,
        "discover": 1904,
        "##uth": 1905,
        "##ail": 1906,
        "entered": 1907,
        "##ocked": 1908,
        "wonders": 1909,
        "##umb": 1910,
        "shells": 1911,
        "tales": 1912,
        "fields": 1913,
        "##noon": 1914,
        "afternoon": 1915,
        "carrot": 1916,
        "##cle": 1917,
        "curiosity": 1918,
        "pee": 1919,
        "bushes": 1920,
        "##ops": 1921,
        "branches": 1922,
        "captain": 1923,
        "##ges": 1924,
        "truth": 1925,
        "##ature": 1926,
        "braver": 1927,
        "sign": 1928,
        "getting": 1929,
        "de": 1930,
        "stren": 1931,
        "stream": 1932,
        "streng": 1933,
        "taught": 1934,
        "rainbows": 1935,
        "strength": 1936,
        "giving": 1937,
        "twinkling": 1938,
        "cir": 1939,
        "three": 1940,
        "bunny": 1941,
        "well": 1942,
        "write": 1943,
        "caught": 1944,
        "prince": 1945,
        "##ple": 1946,
        "thrill": 1947,
        "picn": 1948,
        "picnic": 1949,
        "##dy": 1950,
        "whole": 1951,
        "belonged": 1952,
        "rust": 1953,
        "twirl": 1954,
        "##ib": 1955,
        "kites": 1956,
        "racing": 1957,
        "grump": 1958,
        "yel": 1959,
        "hung": 1960,
        "unic": 1961,
        "cor": 1962,
        "flashlight": 1963,
        "saying": 1964,
        "##ro": 1965,
        "pur": 1966,
        "##house": 1967,
        "yellow": 1968,
        "bottle": 1969,
        "swimming": 1970,
        "yelled": 1971,
        "growing": 1972,
        "fut": 1973,
        "##ont": 1974,
        "hit": 1975,
        "grin": 1976,
        "##ung": 1977,
        "mother": 1978,
        "done": 1979,
        "nature": 1980,
        "##ss": 1981,
        "showing": 1982,
        "egg": 1983,
        "pile": 1984,
        "quest": 1985,
        "future": 1986,
        "corn": 1987,
        "monkey": 1988,
        "troll": 1989,
        "##ever": 1990,
        "mach": 1991,
        "hunt": 1992,
        "##head": 1993,
        "flapped": 1994,
        "trad": 1995,
        "##ined": 1996,
        "whisper": 1997,
        "spotted": 1998,
        "greatest": 1999,
        "nothing": 2000,
        "bre": 2001,
        "honesty": 2002,
        "heroes": 2003,
        "unicorn": 2004,
        "cream": 2005,
        "##set": 2006,
        "celebration": 2007,
        "diamonds": 2008,
        "tradit": 2009,
        "gray": 2010,
        "pick": 2011,
        "grumpy": 2012,
        "comet": 2013,
        "##eck": 2014,
        "mind": 2015,
        "ago": 2016,
        "onto": 2017,
        "peeked": 2018,
        "cray": 2019,
        "##ipped": 2020,
        "neck": 2021,
        "same": 2022,
        "front": 2023,
        "fruits": 2024,
        "winning": 2025,
        "feet": 2026,
        "ahead": 2027,
        "acorn": 2028,
        "train": 2029,
        "swirl": 2030,
        "reading": 2031,
        "protect": 2032,
        "pink": 2033,
        "which": 2034,
        "wom": 2035,
        "woman": 2036,
        "traveled": 2037,
        "treats": 2038,
        "fears": 2039,
        "creaked": 2040,
        "parrot": 2041,
        "club": 2042,
        "today": 2043,
        "lesson": 2044,
        "puzz": 2045,
        "ech": 2046,
        "echo": 2047,
        "net": 2048,
        "surround": 2049,
        "symbol": 2050,
        "nest": 2051,
        "branch": 2052,
        "##pping": 2053,
        "telling": 2054,
        "leaving": 2055,
        "lake": 2056,
        "jumping": 2057,
        "lift": 2058,
        "sway": 2059,
        "giggle": 2060,
        "problem": 2061,
        "sum": 2062,
        "planned": 2063,
        "tale": 2064,
        "dig": 2065,
        "##we": 2066,
        "collect": 2067,
        "ru": 2068,
        "answer": 2069,
        "clear": 2070,
        "##more": 2071,
        "summer": 2072,
        "anymore": 2073,
        "mission": 2074,
        "floating": 2075,
        "##ron": 2076,
        "corner": 2077,
        "##ale": 2078,
        "orange": 2079,
        "start": 2080,
        "course": 2081,
        "believing": 2082,
        "det": 2083,
        "white": 2084,
        "visited": 2085,
        "playground": 2086,
        "grandma": 2087,
        "whispers": 2088,
        "filling": 2089,
        "lady": 2090,
        "bounc": 2091,
        "tom": 2092,
        "shore": 2093,
        "shake": 2094,
        "##ries": 2095,
        "moving": 2096,
        "float": 2097,
        "des": 2098,
        "##iding": 2099,
        "hair": 2100,
        "apple": 2101,
        "finish": 2102,
        "cal": 2103,
        "pass": 2104,
        "kicked": 2105,
        "fail": 2106,
        "surrounded": 2107,
        "##omed": 2108,
        "clues": 2109,
        "splash": 2110,
        "vi": 2111,
        "eag": 2112,
        "slide": 2113,
        "sticks": 2114,
        "break": 2115,
        "mel": 2116,
        "skate": 2117,
        "saf": 2118,
        "bench": 2119,
        "learning": 2120,
        "bask": 2121,
        "cheerful": 2122,
        "sparkle": 2123,
        "coral": 2124,
        "taken": 2125,
        "roared": 2126,
        "tick": 2127,
        "dear": 2128,
        "bravery": 2129,
        "##vas": 2130,
        "canvas": 2131,
        "machine": 2132,
        "coo": 2133,
        "falling": 2134,
        "wants": 2135,
        "ended": 2136,
        "stage": 2137,
        "gems": 2138,
        "arg": 2139,
        "asking": 2140,
        "powerful": 2141,
        "##red": 2142,
        "faded": 2143,
        "round": 2144,
        "ones": 2145,
        "lose": 2146,
        "grant": 2147,
        "##ices": 2148,
        "##tim": 2149,
        "vines": 2150,
        "sleep": 2151,
        "##amp": 2152,
        "trapped": 2153,
        "##sc": 2154,
        "baked": 2155,
        "##orrow": 2156,
        "meant": 2157,
        "forward": 2158,
        "stayed": 2159,
        "playful": 2160,
        "el": 2161,
        "dri": 2162,
        "wiz": 2163,
        "##eed": 2164,
        "wizard": 2165,
        "univer": 2166,
        "universe": 2167,
        "act": 2168,
        "buildings": 2169,
        "tallest": 2170,
        "glass": 2171,
        "adm": 2172,
        "spoon": 2173,
        "##board": 2174,
        "sparkles": 2175,
        "tug": 2176,
        "stand": 2177,
        "sure": 2178,
        "ant": 2179,
        "neckl": 2180,
        "yard": 2181,
        "delic": 2182,
        "else": 2183,
        "mark": 2184,
        "basket": 2185,
        "crying": 2186,
        "roo": 2187,
        "base": 2188,
        "spook": 2189,
        "##selves": 2190,
        "##time": 2191,
        "##ner": 2192,
        "bur": 2193,
        "##ety": 2194,
        "caring": 2195,
        "father": 2196,
        "table": 2197,
        "streets": 2198,
        "shape": 2199,
        "delicious": 2200,
        "spooky": 2201,
        "sneaky": 2202,
        "clot": 2203,
        "##owned": 2204,
        "dirt": 2205,
        "chill": 2206,
        "blanket": 2207,
        "frowned": 2208,
        "lot": 2209,
        "invite": 2210,
        "connect": 2211,
        "teach": 2212,
        "starfish": 2213,
        "forget": 2214,
        "necklace": 2215,
        "chased": 2216,
        "##for": 2217,
        "ve": 2218,
        "line": 2219,
        "##flow": 2220,
        "bond": 2221,
        "knocked": 2222,
        "known": 2223,
        "reminded": 2224,
        "decor": 2225,
        "treehouse": 2226,
        "sprink": 2227,
        "ast": 2228,
        "cross": 2229,
        "distance": 2230,
        "rest": 2231,
        "snowflakes": 2232,
        "sees": 2233,
        "tunn": 2234,
        "merm": 2235,
        "mermaid": 2236,
        "deer": 2237,
        "name": 2238,
        "ate": 2239,
        "shimmered": 2240,
        "purple": 2241,
        "astron": 2242,
        "view": 2243,
        "tools": 2244,
        "astronaut": 2245,
        "wid": 2246,
        "huge": 2247,
        "feast": 2248,
        "taste": 2249,
        "welcomed": 2250,
        "baking": 2251,
        "bubb": 2252,
        "boxes": 2253,
        "shaped": 2254,
        "few": 2255,
        "tomorrow": 2256,
        "ways": 2257,
        "classroom": 2258,
        "thinks": 2259,
        "kitten": 2260,
        "pour": 2261,
        "cars": 2262,
        "pudd": 2263,
        "ind": 2264,
        "flick": 2265,
        "sunflow": 2266,
        "crayons": 2267,
        "##ters": 2268,
        "appro": 2269,
        "balloons": 2270,
        "calm": 2271,
        "artist": 2272,
        "moments": 2273,
        "determ": 2274,
        "##tered": 2275,
        "guide": 2276,
        "##ages": 2277,
        "pock": 2278,
        "louder": 2279,
        "anytime": 2280,
        "buz": 2281,
        "tradition": 2282,
        "choice": 2283,
        "##epend": 2284,
        "taller": 2285,
        "gen": 2286,
        "craw": 2287,
        "moonlight": 2288,
        "##book": 2289,
        "trou": 2290,
        "finds": 2291,
        "##ray": 2292,
        "disappeared": 2293,
        "independ": 2294,
        "tears": 2295,
        "knights": 2296,
        "fountain": 2297,
        "wag": 2298,
        "##sing": 2299,
        "bit": 2300,
        "hungry": 2301,
        "betray": 2302,
        "missing": 2303,
        "cover": 2304,
        "##umbled": 2305,
        "listening": 2306,
        "challenge": 2307,
        "swor": 2308,
        "bes": 2309,
        "challenges": 2310,
        "beside": 2311,
        "realizing": 2312,
        "flour": 2313,
        "sen": 2314,
        "loudly": 2315,
        "rainy": 2316,
        "##dge": 2317,
        "add": 2318,
        "peace": 2319,
        "##ored": 2320,
        "##orse": 2321,
        "tunnel": 2322,
        "approached": 2323,
        "##ject": 2324,
        "themselves": 2325,
        "promise": 2326,
        "broke": 2327,
        "supp": 2328,
        "worlds": 2329,
        "needs": 2330,
        "pump": 2331,
        "##unch": 2332,
        "carry": 2333,
        "enjoying": 2334,
        "tag": 2335,
        "bringing": 2336,
        "towers": 2337,
        "##aged": 2338,
        "lay": 2339,
        "##ering": 2340,
        "reven": 2341,
        "revenge": 2342,
        "##gar": 2343,
        "##asted": 2344,
        "cheering": 2345,
        "##rew": 2346,
        "bak": 2347,
        "cut": 2348,
        "rec": 2349,
        "sprout": 2350,
        "picking": 2351,
        "card": 2352,
        "chance": 2353,
        "snowballs": 2354,
        "trans": 2355,
        "transfor": 2356,
        "dress": 2357,
        "roar": 2358,
        "zog": 2359,
        "happier": 2360,
        "glimm": 2361,
        "cast": 2362,
        "trouble": 2363,
        "witch": 2364,
        "##oney": 2365,
        "bite": 2366,
        "##stone": 2367,
        "clothes": 2368,
        "eas": 2369,
        "##fall": 2370,
        "quietly": 2371,
        "sandw": 2372,
        "##kin": 2373,
        "trusted": 2374,
        "pocket": 2375,
        "##ax": 2376,
        "scar": 2377,
        "pointing": 2378,
        "sword": 2379,
        "push": 2380,
        "##allow": 2381,
        "though": 2382,
        "jung": 2383,
        "climbing": 2384,
        "keeping": 2385,
        "helps": 2386,
        "##ddy": 2387,
        "exciting": 2388,
        "dragons": 2389,
        "pages": 2390,
        "##ides": 2391,
        "sugar": 2392,
        "bar": 2393,
        "digg": 2394,
        "memory": 2395,
        "chase": 2396,
        "scare": 2397,
        "mine": 2398,
        "paintings": 2399,
        "digging": 2400,
        "oven": 2401,
        "pumpkin": 2402,
        "crawled": 2403,
        "echoed": 2404,
        "char": 2405,
        "thick": 2406,
        "feelings": 2407,
        "nose": 2408,
        "##pack": 2409,
        "jungle": 2410,
        "knows": 2411,
        "remembering": 2412,
        "backpack": 2413,
        "##ian": 2414,
        "crystals": 2415,
        "threw": 2416,
        "twist": 2417,
        "##iday": 2418,
        "hot": 2419,
        "calling": 2420,
        "mistakes": 2421,
        "bug": 2422,
        "##erries": 2423,
        "##ive": 2424,
        "pill": 2425,
        "##coon": 2426,
        "pillow": 2427,
        "whoo": 2428,
        "shop": 2429,
        "become": 2430,
        "pieces": 2431,
        "yummy": 2432,
        "wearing": 2433,
        "##ashing": 2434,
        "petals": 2435,
        "hopeful": 2436,
        "##orm": 2437,
        "takes": 2438,
        "pad": 2439,
        "bott": 2440,
        "reminder": 2441,
        "vo": 2442,
        "hats": 2443,
        "##ugg": 2444,
        "cup": 2445,
        "poured": 2446,
        "##ief": 2447,
        "string": 2448,
        "ap": 2449,
        "ju": 2450,
        "flute": 2451,
        "excitedly": 2452,
        "circle": 2453,
        "safely": 2454,
        "recip": 2455,
        "opens": 2456,
        "sparkly": 2457,
        "fres": 2458,
        "##hy": 2459,
        "ring": 2460,
        "seeing": 2461,
        "snowflake": 2462,
        "hol": 2463,
        "##ire": 2464,
        "reader": 2465,
        "enc": 2466,
        "fresh": 2467,
        "##uring": 2468,
        "howled": 2469,
        "years": 2470,
        "holiday": 2471,
        "goal": 2472,
        "wil": 2473,
        "##aling": 2474,
        "apples": 2475,
        "luck": 2476,
        "##ident": 2477,
        "swirled": 2478,
        "following": 2479,
        "widened": 2480,
        "fit": 2481,
        "##gy": 2482,
        "##ibb": 2483,
        "unl": 2484,
        "encour": 2485,
        "##elly": 2486,
        "##aled": 2487,
        "whale": 2488,
        "##anger": 2489,
        "coun": 2490,
        "giggling": 2491,
        "bust": 2492,
        "sled": 2493,
        "slipped": 2494,
        "weeks": 2495,
        "fur": 2496,
        "guess": 2497,
        "jokes": 2498,
        "transformed": 2499,
        "jelly": 2500,
        "une": 2501,
        "##sure": 2502,
        "bubble": 2503,
        "floor": 2504,
        "planting": 2505,
        "loves": 2506,
        "bustling": 2507,
        "##omes": 2508,
        "snail": 2509,
        "hour": 2510,
        "zi": 2511,
        "wishing": 2512,
        "pretended": 2513,
        "buttons": 2514,
        "tasted": 2515,
        "##ents": 2516,
        "##ath": 2517,
        "invent": 2518,
        "##water": 2519,
        "leg": 2520,
        "sandc": 2521,
        "wear": 2522,
        "##oop": 2523,
        "swings": 2524,
        "blow": 2525,
        "clue": 2526,
        "planning": 2527,
        "zippy": 2528,
        "harder": 2529,
        "unsure": 2530,
        "scr": 2531,
        "glasses": 2532,
        "street": 2533,
        "losing": 2534,
        "##ef": 2535,
        "pair": 2536,
        "dreamland": 2537,
        "thrilled": 2538,
        "rusty": 2539,
        "eager": 2540,
        "whoosh": 2541,
        "##enter": 2542,
        "player": 2543,
        "pers": 2544,
        "admired": 2545,
        "center": 2546,
        "gal": 2547,
        "reef": 2548,
        "soci": 2549,
        "wild": 2550,
        "moves": 2551,
        "jar": 2552,
        "spinning": 2553,
        "darkness": 2554,
        "##ano": 2555,
        "galax": 2556,
        "sque": 2557,
        "feathers": 2558,
        "underwater": 2559,
        "society": 2560,
        "bubbles": 2561,
        "scarf": 2562,
        "explorer": 2563,
        "alm": 2564,
        "ra": 2565,
        "glo": 2566,
        "betrayed": 2567,
        "almost": 2568,
        "waterfall": 2569,
        "able": 2570,
        "##ging": 2571,
        "check": 2572,
        "shown": 2573,
        "weight": 2574,
        "lighter": 2575,
        "flutter": 2576,
        "##uilt": 2577,
        "swayed": 2578,
        "##ibil": 2579,
        "determined": 2580,
        "bags": 2581,
        "lion": 2582,
        "edge": 2583,
        "##cus": 2584,
        "counted": 2585,
        "frost": 2586,
        "starry": 2587,
        "bottom": 2588,
        "wagged": 2589,
        "whenever": 2590,
        "upset": 2591,
        "##llip": 2592,
        "shel": 2593,
        "lollip": 2594,
        "##ope": 2595,
        "wobb": 2596,
        "failure": 2597,
        "##shine": 2598,
        "##icy": 2599,
        "seem": 2600,
        "raccoon": 2601,
        "job": 2602,
        "during": 2603,
        "##ying": 2604,
        "twirling": 2605,
        "soup": 2606,
        "##scap": 2607,
        "soar": 2608,
        "locked": 2609,
        "chip": 2610,
        "##lep": 2611,
        "sunshine": 2612,
        "dancer": 2613,
        "gifts": 2614,
        "apart": 2615,
        "hours": 2616,
        "##hood": 2617,
        "tricky": 2618,
        "pri": 2619,
        "##iting": 2620,
        "awe": 2621,
        "galaxy": 2622,
        "ban": 2623,
        "flowed": 2624,
        "log": 2625,
        "popped": 2626,
        "brightest": 2627,
        "##ooth": 2628,
        "fighting": 2629,
        "reminding": 2630,
        "myster": 2631,
        "freed": 2632,
        "castles": 2633,
        "##tell": 2634,
        "##ushes": 2635,
        "giants": 2636,
        "ing": 2637,
        "##redient": 2638,
        "ingredient": 2639,
        "guilt": 2640,
        "offered": 2641,
        "tel": 2642,
        "##pe": 2643,
        "against": 2644,
        "##esc": 2645,
        "telesc": 2646,
        "##mb": 2647,
        "count": 2648,
        "doll": 2649,
        "escap": 2650,
        "rabbits": 2651,
        "steps": 2652,
        "aut": 2653,
        "reve": 2654,
        "throw": 2655,
        "##umn": 2656,
        "shines": 2657,
        "autumn": 2658,
        "danger": 2659,
        "wolf": 2660,
        "##eddy": 2661,
        "telescope": 2662,
        "nut": 2663,
        "leading": 2664,
        "burst": 2665,
        "begin": 2666,
        "splashing": 2667,
        "tickle": 2668,
        "lives": 2669,
        "shout": 2670,
        "understanding": 2671,
        "berries": 2672,
        "stud": 2673,
        "pre": 2674,
        "bread": 2675,
        "tied": 2676,
        "shelf": 2677,
        "teddy": 2678,
        "rang": 2679,
        "problems": 2680,
        "##xp": 2681,
        "leap": 2682,
        "unexp": 2683,
        "unexpected": 2684,
        "smooth": 2685,
        "ener": 2686,
        "eggs": 2687,
        "da": 2688,
        "puddle": 2689,
        "sense": 2690,
        "ser": 2691,
        "energy": 2692,
        "circ": 2693,
        "##ibility": 2694,
        "voices": 2695,
        "focus": 2696,
        "hi": 2697,
        "grinned": 2698,
        "lands": 2699,
        "middle": 2700,
        "wigg": 2701,
        "underground": 2702,
        "enter": 2703,
        "seaw": 2704,
        "seaweed": 2705,
        "##ches": 2706,
        "##oot": 2707,
        "parts": 2708,
        "##acing": 2709,
        "shiver": 2710,
        "##ol": 2711,
        "dough": 2712,
        "gar": 2713,
        "steep": 2714,
        "##eath": 2715,
        "beneath": 2716,
        "##iches": 2717,
        "page": 2718,
        "ears": 2719,
        "gummy": 2720,
        "##apping": 2721,
        "##aby": 2722,
        "cared": 2723,
        "##cep": 2724,
        "accep": 2725,
        "chees": 2726,
        "fixed": 2727,
        "##acel": 2728,
        "bracel": 2729,
        "sunset": 2730,
        "neighborhood": 2731,
        "decl": 2732,
        "imagining": 2733,
        "spell": 2734,
        "choo": 2735,
        "##airs": 2736,
        "dim": 2737,
        "##ssed": 2738,
        "conf": 2739,
        "##iff": 2740,
        "click": 2741,
        "forgotten": 2742,
        "hey": 2743,
        "##ales": 2744,
        "declared": 2745,
        "ann": 2746,
        "recipe": 2747,
        "garage": 2748,
        "##men": 2749,
        "##ouses": 2750,
        "homes": 2751,
        "reac": 2752,
        "cheese": 2753,
        "ingredients": 2754,
        "buried": 2755,
        "glad": 2756,
        "sunflower": 2757,
        "globe": 2758,
        "handed": 2759,
        "har": 2760,
        "waving": 2761,
        "baker": 2762,
        "keeper": 2763,
        "thief": 2764,
        "ref": 2765,
        "rel": 2766,
        "ear": 2767,
        "bounced": 2768,
        "rex": 2769,
        "brav": 2770,
        "smaller": 2771,
        "houses": 2772,
        "meeting": 2773,
        "tip": 2774,
        "inc": 2775,
        "patience": 2776,
        "questions": 2777,
        "hoped": 2778,
        "guilty": 2779,
        "thanks": 2780,
        "encouraged": 2781,
        "gener": 2782,
        "tripped": 2783,
        "##rop": 2784,
        "darkest": 2785,
        "sandcastle": 2786,
        "giggles": 2787,
        "puzzle": 2788,
        "trusting": 2789,
        "brushes": 2790,
        "failed": 2791,
        "mixing": 2792,
        "glit": 2793,
        "eating": 2794,
        "fought": 2795,
        "whistle": 2796,
        "baby": 2797,
        "alley": 2798,
        "##ingle": 2799,
        "beep": 2800,
        "##ising": 2801,
        "escape": 2802,
        "buddy": 2803,
        "itself": 2804,
        "sandwiches": 2805,
        "fis": 2806,
        "famil": 2807,
        "soil": 2808,
        "skateboard": 2809,
        "shi": 2810,
        "fastest": 2811,
        "shows": 2812,
        "bees": 2813,
        "pie": 2814,
        "grown": 2815,
        "paints": 2816,
        "wandered": 2817,
        "wheels": 2818,
        "scored": 2819,
        "cleaned": 2820,
        "tough": 2821,
        "tor": 2822,
        "tells": 2823,
        "choose": 2824,
        "snowmen": 2825,
        "doors": 2826,
        "scales": 2827,
        "fading": 2828,
        "sailing": 2829,
        "stom": 2830,
        "ribb": 2831,
        "stret": 2832,
        "hurried": 2833,
        "celebrating": 2834,
        "warned": 2835,
        "##ual": 2836,
        "##hell": 2837,
        "project": 2838,
        "owner": 2839,
        "seashell": 2840,
        "shr": 2841,
        "scrat": 2842,
        "##umble": 2843,
        "veget": 2844,
        "cupc": 2845,
        "blooming": 2846,
        "connection": 2847,
        "##osaurus": 2848,
        "prize": 2849,
        "##eds": 2850,
        "square": 2851,
        "shimmering": 2852,
        "firef": 2853,
        "##hant": 2854,
        "soaring": 2855,
        "paths": 2856,
        "strugg": 2857,
        "##bug": 2858,
        "holds": 2859,
        "sim": 2860,
        "blip": 2861,
        "independence": 2862,
        "mysterious": 2863,
        "##mon": 2864,
        "shot": 2865,
        "tingle": 2866,
        "fro": 2867,
        "asks": 2868,
        "honey": 2869,
        "skated": 2870,
        "watering": 2871,
        "goes": 2872,
        "hurry": 2873,
        "piano": 2874,
        "elep": 2875,
        "elephant": 2876,
        "scre": 2877,
        "fing": 2878,
        "banan": 2879,
        "yet": 2880,
        "gn": 2881,
        "argued": 2882,
        "##ables": 2883,
        "facing": 2884,
        "##ledge": 2885,
        "knowledge": 2886,
        "##isted": 2887,
        "market": 2888,
        "barked": 2889,
        "vegetables": 2890,
        "carrots": 2891,
        "locket": 2892,
        "swirling": 2893,
        "trail": 2894,
        "shaking": 2895,
        "standing": 2896,
        "aw": 2897,
        "rise": 2898,
        "person": 2899,
        "circles": 2900,
        "fallen": 2901,
        "wobble": 2902,
        "brightstone": 2903,
        "spreading": 2904,
        "cooking": 2905,
        "##aused": 2906,
        "##icing": 2907,
        "support": 2908,
        "oak": 2909,
        "shelter": 2910,
        "carried": 2911,
        "##kers": 2912,
        "boo": 2913,
        "disappoin": 2914,
        "sparky": 2915,
        "wing": 2916,
        "suc": 2917,
        "gathering": 2918,
        "##erp": 2919,
        "legs": 2920,
        "surf": 2921,
        "answered": 2922,
        "friendships": 2923,
        "caterp": 2924,
        "caterpill": 2925,
        "fizz": 2926,
        "focused": 2927,
        "coat": 2928,
        "##oak": 2929,
        "juice": 2930,
        "seah": 2931,
        "puzzles": 2932,
        "cape": 2933,
        "seasons": 2934,
        "happiest": 2935,
        "fier": 2936,
        "cher": 2937,
        "tasty": 2938,
        "aud": 2939,
        "poss": 2940,
        "grows": 2941,
        "bark": 2942,
        "turning": 2943,
        "grab": 2944,
        "sel": 2945,
        "explorers": 2946,
        "glitter": 2947,
        "patient": 2948,
        "##ween": 2949,
        "disappear": 2950,
        "##ille": 2951,
        "between": 2952,
        "##ville": 2953,
        "crash": 2954,
        "keys": 2955,
        "chose": 2956,
        "notebook": 2957,
        "caterpillar": 2958,
        "proudly": 2959,
        "stumbled": 2960,
        "eye": 2961,
        "rose": 2962,
        "mud": 2963,
        "wisdom": 2964,
        "sib": 2965,
        "ladybug": 2966,
        "bracelet": 2967,
        "po": 2968,
        "ped": 2969,
        "cur": 2970,
        "shined": 2971,
        "paw": 2972,
        "stacked": 2973,
        "tipto": 2974,
        "symbols": 2975,
        "heal": 2976,
        "tricked": 2977,
        "chef": 2978,
        "reaching": 2979,
        "pretending": 2980,
        "##unk": 2981,
        "seahorse": 2982,
        "joke": 2983,
        "weak": 2984,
        "overc": 2985,
        "##ounced": 2986,
        "roof": 2987,
        "chick": 2988,
        "tune": 2989,
        "scoo": 2990,
        "cost": 2991,
        "audience": 2992,
        "bow": 2993,
        "families": 2994,
        "lunch": 2995,
        "weeds": 2996,
        "skill": 2997,
        "swung": 2998,
        "wet": 2999,
        "smells": 3000,
        "kick": 3001,
        "paused": 3002,
        "speed": 3003,
        "hopping": 3004,
        "visible": 3005,
        "prep": 3006,
        "##dled": 3007,
        "sight": 3008,
        "myself": 3009,
        "##hest": 3010,
        "chuck": 3011,
        "##gu": 3012,
        "announced": 3013,
        "cloak": 3014,
        "mistake": 3015,
        "tiptoed": 3016,
        "thoughts": 3017,
        "blocking": 3018,
        "dolphins": 3019,
        "##ushing": 3020,
        "virt": 3021,
        "leads": 3022,
        "neighbors": 3023,
        "##qu": 3024,
        "virtual": 3025,
        "streams": 3026,
        "responsibility": 3027,
        "nuts": 3028,
        "dropped": 3029,
        "trash": 3030,
        "drink": 3031,
        "##ecting": 3032,
        "helper": 3033,
        "##ustr": 3034,
        "hang": 3035,
        "disappointed": 3036,
        "notes": 3037,
        "gnome": 3038,
        "crashed": 3039,
        "late": 3040,
        "frustr": 3041,
        "crowns": 3042,
        "decorated": 3043,
        "foot": 3044,
        "living": 3045,
        "twisted": 3046,
        "##der": 3047,
        "##tor": 3048,
        "practicing": 3049,
        "##ress": 3050,
        "learns": 3051,
        "fierce": 3052,
        "cot": 3053,
        "cott": 3054,
        "##icking": 3055,
        "bicy": 3056,
        "desk": 3057,
        "beamed": 3058,
        "sisters": 3059,
        "melo": 3060,
        "pebble": 3061,
        "frustrated": 3062,
        "birth": 3063,
        "buzzed": 3064,
        "superheroes": 3065,
        "birthday": 3066,
        "wisely": 3067,
        "tear": 3068,
        "chips": 3069,
        "given": 3070,
        "beat": 3071
      }
    }
  }